{
  "version": "1.0",
  "truncation": null,
  "padding": null,
  "added_tokens": [
    {
      "id": 0,
      "content": "<UNK>",
      "single_word": false,
      "lstrip": false,
      "rstrip": false,
      "normalized": false,
      "special": true
    },
    {
      "id": 1,
      "content": "<PAD>",
      "single_word": false,
      "lstrip": false,
      "rstrip": false,
      "normalized": false,
      "special": true
    },
    {
      "id": 2,
      "content": "<BOS>",
      "single_word": false,
      "lstrip": false,
      "rstrip": false,
      "normalized": false,
      "special": true
    },
    {
      "id": 3,
      "content": "<EOS>",
      "single_word": false,
      "lstrip": false,
      "rstrip": false,
      "normalized": false,
      "special": true
    },
    {
      "id": 4,
      "content": "<CONTEXT>",
      "single_word": false,
      "lstrip": false,
      "rstrip": false,
      "normalized": false,
      "special": true
    },
    {
      "id": 5,
      "content": "</CONTEXT>",
      "single_word": false,
      "lstrip": false,
      "rstrip": false,
      "normalized": false,
      "special": true
    },
    {
      "id": 6,
      "content": "<STATE>",
      "single_word": false,
      "lstrip": false,
      "rstrip": false,
      "normalized": false,
      "special": true
    },
    {
      "id": 7,
      "content": "</STATE>",
      "single_word": false,
      "lstrip": false,
      "rstrip": false,
      "normalized": false,
      "special": true
    },
    {
      "id": 8,
      "content": "<METADATA>",
      "single_word": false,
      "lstrip": false,
      "rstrip": false,
      "normalized": false,
      "special": true
    },
    {
      "id": 9,
      "content": "</METADATA>",
      "single_word": false,
      "lstrip": false,
      "rstrip": false,
      "normalized": false,
      "special": true
    },
    {
      "id": 10,
      "content": "<INPUT>",
      "single_word": false,
      "lstrip": false,
      "rstrip": false,
      "normalized": false,
      "special": true
    },
    {
      "id": 11,
      "content": "</INPUT>",
      "single_word": false,
      "lstrip": false,
      "rstrip": false,
      "normalized": false,
      "special": true
    },
    {
      "id": 12,
      "content": "<CONTRACT:1.0>",
      "single_word": false,
      "lstrip": false,
      "rstrip": false,
      "normalized": false,
      "special": true
    }
  ],
  "normalizer": {
    "type": "NFC"
  },
  "pre_tokenizer": {
    "type": "ByteLevel",
    "add_prefix_space": false,
    "trim_offsets": true,
    "use_regex": true
  },
  "post_processor": {
    "type": "ByteLevel",
    "add_prefix_space": true,
    "trim_offsets": true,
    "use_regex": true
  },
  "decoder": {
    "type": "ByteLevel",
    "add_prefix_space": true,
    "trim_offsets": true,
    "use_regex": true
  },
  "model": {
    "type": "Unigram",
    "unk_id": 0,
    "vocab": [
      [
        "<UNK>",
        0.0
      ],
      [
        "<PAD>",
        0.0
      ],
      [
        "<BOS>",
        0.0
      ],
      [
        "<EOS>",
        0.0
      ],
      [
        "<CONTEXT>",
        0.0
      ],
      [
        "</CONTEXT>",
        0.0
      ],
      [
        "<STATE>",
        0.0
      ],
      [
        "</STATE>",
        0.0
      ],
      [
        "<METADATA>",
        0.0
      ],
      [
        "</METADATA>",
        0.0
      ],
      [
        "<INPUT>",
        0.0
      ],
      [
        "</INPUT>",
        0.0
      ],
      [
        "<CONTRACT:1.0>",
        0.0
      ],
      [
        ",",
        -3.3561246230939954
      ],
      [
        ".",
        -3.625362196451176
      ],
      [
        "Ġ",
        -3.7179961911162778
      ],
      [
        "ĠvÃł",
        -4.608602222364876
      ],
      [
        "Ġcá»§a",
        -4.766097296320726
      ],
      [
        "ĠcÃ³",
        -4.768728358219674
      ],
      [
        "ĠlÃł",
        -4.875592414222497
      ],
      [
        "-",
        -5.03716164732476
      ],
      [
        "ĠcÃ¡c",
        -5.05173822175907
      ],
      [
        "ĠÄĳÆ°á»£c",
        -5.092242122693948
      ],
      [
        ":",
        -5.1863287449760005
      ],
      [
        "Ġcho",
        -5.1912752387188785
      ],
      [
        "Ġtrong",
        -5.242279405402503
      ],
      [
        "Ġvá»Ľi",
        -5.2588959885852695
      ],
      [
        "ĠkhÃ´ng",
        -5.26709916180552
      ],
      [
        "Ġmá»Ļt",
        -5.272205890092335
      ],
      [
        "ĠngÆ°á»Ŀi",
        -5.468990763640315
      ],
      [
        "Ġnhá»¯ng",
        -5.469459240585383
      ],
      [
        "/",
        -5.608281543440215
      ],
      [
        "Ġthá»ĥ",
        -5.621239557378981
      ],
      [
        "ĠÄĳá»ĥ",
        -5.6418309322593725
      ],
      [
        "ĠÄĳÃ£",
        -5.653341890311019
      ],
      [
        "Ġbáº¡n",
        -5.668008943729953
      ],
      [
        "(",
        -5.798791712430628
      ],
      [
        "ĠcÃ´ng",
        -5.798813661165477
      ],
      [
        "i",
        -5.800812139774807
      ],
      [
        "ĠnÃły",
        -5.8047409307895865
      ],
      [
        "ĠÄĳáº¿n",
        -5.850713754401694
      ],
      [
        "Ġkhi",
        -5.855905747122911
      ],
      [
        "Ġsáº½",
        -5.869542390955079
      ],
      [
        "n",
        -5.889313974156975
      ],
      [
        "Ġnhiá»ģu",
        -5.915138509225288
      ],
      [
        "ĠnhÆ°",
        -5.928452511601165
      ],
      [
        "Ġra",
        -5.948135439165219
      ],
      [
        "Ġvá»ģ",
        -5.9550409061690495
      ],
      [
        "t",
        -5.963230249220221
      ],
      [
        "Ġtá»«",
        -5.9782030485648665
      ],
      [
        "Ġtáº¡i",
        -6.000933515871468
      ],
      [
        "2",
        -6.005314395395317
      ],
      [
        "ĠlÃłm",
        -6.009062797265608
      ],
      [
        "m",
        -6.010192955406943
      ],
      [
        "Ġá»Ł",
        -6.023655278064982
      ],
      [
        "ĠhÃłng",
        -6.028064446100304
      ],
      [
        "Ġdá»¥ng",
        -6.046317561866367
      ],
      [
        "ĠtrÃªn",
        -6.051892359394504
      ],
      [
        "ĠvÃło",
        -6.062474904427026
      ],
      [
        "ĠnhÃł",
        -6.103067569006871
      ],
      [
        ")",
        -6.1056628286575325
      ],
      [
        "ĠcÅ©ng",
        -6.106482693326559
      ],
      [
        "Ġhiá»ĩn",
        -6.126607112156659
      ],
      [
        "ĠÄĳÃ³",
        -6.137610717018282
      ],
      [
        "Ġnháº¥t",
        -6.1558942565939
      ],
      [
        "Ġsá»±",
        -6.164524532384213
      ],
      [
        "ĠÄĳáº§u",
        -6.167460115619026
      ],
      [
        "Ġbá»ĭ",
        -6.169294587679641
      ],
      [
        "Ġláº¡i",
        -6.19881678046983
      ],
      [
        "Ġsá»ĳ",
        -6.1997856648851695
      ],
      [
        "Ġviá»ĩc",
        -6.2204202436182126
      ],
      [
        "ĠÄĳá»Ļng",
        -6.222423344170915
      ],
      [
        "ĠnÄĥm",
        -6.225644924098228
      ],
      [
        "ĠthÃłnh",
        -6.229944857775914
      ],
      [
        "Ġ1",
        -6.2635328696619865
      ],
      [
        "ĠngÃły",
        -6.265922313073151
      ],
      [
        "Ġsáº£n",
        -6.293728502912371
      ],
      [
        "c",
        -6.304987102929523
      ],
      [
        "s",
        -6.309257168620821
      ],
      [
        "\"",
        -6.324712135785978
      ],
      [
        "Ġchá»ī",
        -6.3360585682873936
      ],
      [
        "Ġhá»£p",
        -6.354075085156001
      ],
      [
        "a",
        -6.3607467713787464
      ],
      [
        "Ġhá»įc",
        -6.369837250398604
      ],
      [
        "ĠnÆ°á»Ľc",
        -6.369858232486559
      ],
      [
        "ĠhÆ¡n",
        -6.374538547723285
      ],
      [
        "Ġpháº£i",
        -6.379904516335888
      ],
      [
        "ĠmÃł",
        -6.382520334502823
      ],
      [
        "y",
        -6.38280413405827
      ],
      [
        "Ġcao",
        -6.42381175213769
      ],
      [
        "ĠgiÃ¡",
        -6.428361523536722
      ],
      [
        "ĠchÃŃnh",
        -6.434078796787279
      ],
      [
        "ĠthÃ¬",
        -6.4342184888099485
      ],
      [
        "Ġgia",
        -6.441951862752834
      ],
      [
        "Ġráº¥t",
        -6.452411196476914
      ],
      [
        "Ġquan",
        -6.458486917480881
      ],
      [
        "Ġthá»Ŀi",
        -6.478207374202855
      ],
      [
        "ĠcÃ¡ch",
        -6.489170189172084
      ],
      [
        "ĠnÃªn",
        -6.49864691763513
      ],
      [
        "ĠnhÃ¢n",
        -6.49908830263916
      ],
      [
        "ĠÄĳá»ĵng",
        -6.517254375656195
      ],
      [
        "Ġsinh",
        -6.5175304440333335
      ],
      [
        "ĠâĢĵ",
        -6.519725857995173
      ],
      [
        "ĠhÃ¬nh",
        -6.524874314785386
      ],
      [
        "ĠÄĳá»ĭnh",
        -6.529202057889531
      ],
      [
        "ĠtrÆ°á»Ŀng",
        -6.534151460565715
      ],
      [
        "ĠthÃ´ng",
        -6.53586261990956
      ],
      [
        "g",
        -6.537472193613686
      ],
      [
        "ĠcÃ¹ng",
        -6.545539622632781
      ],
      [
        "Ġpháº©m",
        -6.549097018003609
      ],
      [
        "o",
        -6.5498407445176525
      ],
      [
        "Ġsá»Ń",
        -6.556837620828727
      ],
      [
        "ĠcÃ²n",
        -6.563796512524892
      ],
      [
        "ĠâĢľ",
        -6.571364844175047
      ],
      [
        "ĠtÃ´i",
        -6.572580533601672
      ],
      [
        "Ġtheo",
        -6.576215977443413
      ],
      [
        "ĠNam",
        -6.57689814473957
      ],
      [
        "ĠÄĳiá»ģu",
        -6.580261371233531
      ],
      [
        "ĠcÆ¡",
        -6.584548303109667
      ],
      [
        "Ġtháº¿",
        -6.584985644479945
      ],
      [
        "Ġsau",
        -6.586347477906738
      ],
      [
        "Ġthá»±c",
        -6.588911930898734
      ],
      [
        "Ġmá»Ľi",
        -6.591152889895916
      ],
      [
        "ĠkhÃ¡ch",
        -6.5958065152495475
      ],
      [
        "ĠÄĳi",
        -6.5997110541154065
      ],
      [
        "5",
        -6.603170644595412
      ],
      [
        "ĠmÃ¬nh",
        -6.6039550224992976
      ],
      [
        "ĠViá»ĩt",
        -6.622502244830494
      ],
      [
        "ĠnÄĥng",
        -6.629931353277318
      ],
      [
        "?",
        -6.631863018189712
      ],
      [
        "ĠÄĳang",
        -6.644349289046209
      ],
      [
        "ĠlÆ°á»£ng",
        -6.645924188439579
      ],
      [
        "Ġcháº¥t",
        -6.666720314231528
      ],
      [
        "ĠtrÃ¬nh",
        -6.678862531083119
      ],
      [
        "Ġ3",
        -6.678879274695127
      ],
      [
        "ĠÄĳÃ¢y",
        -6.679293657016844
      ],
      [
        "Ġtin",
        -6.687455026609095
      ],
      [
        "Ġcáº¥p",
        -6.68922551677203
      ],
      [
        "ĠviÃªn",
        -6.689985641291969
      ],
      [
        "ĠkhÃ¡c",
        -6.696221764626243
      ],
      [
        "Ġcon",
        -6.705144620744473
      ],
      [
        "Ġqua",
        -6.708429990722049
      ],
      [
        "Ġcáº£",
        -6.713975385034866
      ],
      [
        "ĠÄĳá»Ļ",
        -6.717780021534837
      ],
      [
        "p",
        -6.723877593137312
      ],
      [
        "ĠphÃ¡t",
        -6.72451991027657
      ],
      [
        "Ġvá»¥",
        -6.725351388649722
      ],
      [
        "h",
        -6.729826678304068
      ],
      [
        "ĠchÃºng",
        -6.738271407877248
      ],
      [
        "Ġcáº§n",
        -6.745378263582099
      ],
      [
        "Ġthiáº¿t",
        -6.745818748185522
      ],
      [
        "u",
        -6.74838939071606
      ],
      [
        "Ġloáº¡i",
        -6.7508233528206265
      ],
      [
        "ĠmÃ¡y",
        -6.752815617143591
      ],
      [
        "ĠhÃłnh",
        -6.756283775678748
      ],
      [
        "ĠÄĳiá»ĥm",
        -6.758104957787536
      ],
      [
        "ĠlÃ½",
        -6.764364532059888
      ],
      [
        "ĠgiÃºp",
        -6.772342617324286
      ],
      [
        "Ġgian",
        -6.773688638644035
      ],
      [
        "ĠnhÆ°ng",
        -6.786742742644119
      ],
      [
        "Ġxuáº¥t",
        -6.788147436287119
      ],
      [
        "Ġbiáº¿t",
        -6.790455412937014
      ],
      [
        "ng",
        -6.807858806825569
      ],
      [
        "ĠnháºŃn",
        -6.809305033318278
      ],
      [
        "ĠlÃªn",
        -6.8147481362433275
      ],
      [
        "Ġtáº¡o",
        -6.8182814731939985
      ],
      [
        "ĠtoÃłn",
        -6.828030195615282
      ],
      [
        "Ġbá»Ļ",
        -6.828913033398662
      ],
      [
        "Ġnghiá»ĩp",
        -6.8383216713542865
      ],
      [
        "Ġkáº¿t",
        -6.845330673239868
      ],
      [
        "Ġhiá»ĩu",
        -6.850979831403576
      ],
      [
        "Ġcáº§u",
        -6.862314260832424
      ],
      [
        "Ġmáº·t",
        -6.873132995323028
      ],
      [
        "Ġhay",
        -6.876078044464133
      ],
      [
        "ĠnÃło",
        -6.878489829185154
      ],
      [
        "Ġbáº£o",
        -6.882164298852562
      ],
      [
        "ĠtrÆ°á»Ľc",
        -6.904552599477286
      ],
      [
        "Ġvá»ĭ",
        -6.9051500597425886
      ],
      [
        "ĠtÃŃnh",
        -6.90850202871102
      ],
      [
        "Ġbáº±ng",
        -6.9098820000877055
      ],
      [
        "Ġtáº¿",
        -6.912537593836346
      ],
      [
        "Ġtá»ĳt",
        -6.912569463820994
      ],
      [
        "Ġpháº§n",
        -6.9147724151069045
      ],
      [
        "Ġxe",
        -6.918294660389746
      ],
      [
        "ĠthÆ°á»Ŀng",
        -6.9218389114004495
      ],
      [
        "Ġtiáº¿p",
        -6.922724910424252
      ],
      [
        "ĠtÃ¡c",
        -6.926373058707176
      ],
      [
        "ĠÄĳá»ĳi",
        -6.929274077956693
      ],
      [
        "Ġnay",
        -6.9441361910950725
      ],
      [
        "Ġdá»ĭch",
        -6.944274396152075
      ],
      [
        "Ġdo",
        -6.946804534502018
      ],
      [
        "ĠvÃ¬",
        -6.951233375955699
      ],
      [
        "ĠphÃ²ng",
        -6.957972640390555
      ],
      [
        "Ġtá»±",
        -6.959931139723178
      ],
      [
        "Ġquáº£",
        -6.962621071371554
      ],
      [
        "ĠtÆ°",
        -6.9640139577667455
      ],
      [
        "ĠtÃ¢m",
        -6.970000578509371
      ],
      [
        "Ġchá»įn",
        -6.973648190803667
      ],
      [
        "Ġhoáº·c",
        -6.981795311475807
      ],
      [
        "Ġkáº¿",
        -6.983161776740285
      ],
      [
        "ĠnhiÃªn",
        -6.984785837679921
      ],
      [
        "ĠÄĳÆ°á»Ŀng",
        -6.995293097080996
      ],
      [
        "ĠdÃ¢n",
        -6.997271620771416
      ],
      [
        "Ġhá»Ļi",
        -6.9981349775513735
      ],
      [
        "ĠtÃ¬nh",
        -7.000298492751199
      ],
      [
        "ĠdÃ¹ng",
        -7.001544829880709
      ],
      [
        "ĠÄĥn",
        -7.002469748959925
      ],
      [
        "Ġkinh",
        -7.0093483102019665
      ],
      [
        "âĢĿ",
        -7.010819107931537
      ],
      [
        "Ġlá»Ľn",
        -7.016047874189233
      ],
      [
        "Ġta",
        -7.01936568884949
      ],
      [
        "6",
        -7.019819578002254
      ],
      [
        "Ġbá»ĩnh",
        -7.023283660691629
      ],
      [
        "Ġgiá»Ľi",
        -7.027233809490513
      ],
      [
        "Ġhá»ĩ",
        -7.028375798435995
      ],
      [
        "ĠÃ½",
        -7.038073600350035
      ],
      [
        "Ġgiáº£i",
        -7.042108800147984
      ],
      [
        "ĠÄĳiá»ĩn",
        -7.051702270687741
      ],
      [
        "Ġtháº¥y",
        -7.05521876771903
      ],
      [
        "Ġbáº£n",
        -7.0590169438568555
      ],
      [
        "Ġchá»©c",
        -7.061823154871794
      ],
      [
        "Ġthá»ĭ",
        -7.069709516201195
      ],
      [
        "Ġchá»§",
        -7.070037422467092
      ],
      [
        "Ġtiá»ģn",
        -7.071659316955088
      ],
      [
        ";",
        -7.076605669552658
      ],
      [
        "Ġtá»Ľi",
        -7.078794963337566
      ],
      [
        "Ġmang",
        -7.081991838990406
      ],
      [
        "Ġáº£nh",
        -7.0860136032973795
      ],
      [
        "Ġanh",
        -7.08660339912446
      ],
      [
        "7",
        -7.087575699358204
      ],
      [
        "Ġthá»©c",
        -7.087939474462896
      ],
      [
        "e",
        -7.0901609330853645
      ],
      [
        "ĠÄĳáº¹p",
        -7.090950616271986
      ],
      [
        "Ġtrang",
        -7.094541305425063
      ],
      [
        "Ġ4",
        -7.104046454167635
      ],
      [
        "ĠchÆ¡i",
        -7.10532647745703
      ],
      [
        "ĠgÃ¬",
        -7.112030515155745
      ],
      [
        "ĠÄĳáº¡i",
        -7.11220231523545
      ],
      [
        "ĠÄĳá»ģ",
        -7.11315385295093
      ],
      [
        "ĠtÄĥng",
        -7.114636132395278
      ],
      [
        "ĠnÃ³i",
        -7.117164453946176
      ],
      [
        "Ġem",
        -7.118905384911715
      ],
      [
        "Ġtrá»įng",
        -7.121776023489197
      ],
      [
        "Ġda",
        -7.125181445525081
      ],
      [
        "ĠthÃ¡ng",
        -7.132077463970186
      ],
      [
        "Ġtriá»ĥn",
        -7.141258411193197
      ],
      [
        "ĠquÃ¡",
        -7.142457422079332
      ],
      [
        "Ġbiá»ĩt",
        -7.146878440732291
      ],
      [
        "Ġcáº£m",
        -7.149774539182703
      ],
      [
        "d",
        -7.163301110355498
      ],
      [
        "ĠÃ´ng",
        -7.165304304499733
      ],
      [
        "Ġdoanh",
        -7.172060320409793
      ],
      [
        "Ġtrá»ĭ",
        -7.173309935640148
      ],
      [
        "ĠCÃ´ng",
        -7.174794898563992
      ],
      [
        "ĠyÃªu",
        -7.17946516406551
      ],
      [
        "ĠQuá»ĳc",
        -7.18114366671796
      ],
      [
        "Ġdá»±",
        -7.183900340294361
      ],
      [
        "ĠtáºŃp",
        -7.188067695989215
      ],
      [
        "...",
        -7.188598182047736
      ],
      [
        "8",
        -7.195308687748124
      ],
      [
        "Ġsá»ĳng",
        -7.197012084268396
      ],
      [
        "Ġty",
        -7.202800283537561
      ],
      [
        "Ġthá»ĳng",
        -7.206198300318828
      ],
      [
        "Ġhoáº¡t",
        -7.213018733168898
      ],
      [
        "ĠbÃłi",
        -7.2179826254236925
      ],
      [
        "Ġváº«n",
        -7.220827426196907
      ],
      [
        "ĠphÃ¡p",
        -7.221481879034933
      ],
      [
        "ĠtiÃªu",
        -7.226317226115601
      ],
      [
        "ĠS",
        -7.2272199735024
      ],
      [
        "Ġtrá»Ł",
        -7.228330932730348
      ],
      [
        "ĠtÃ¬m",
        -7.232355571454507
      ],
      [
        "ĠthÆ°Æ¡ng",
        -7.239525491981828
      ],
      [
        "ĠÄĳÆ¡n",
        -7.23974241376817
      ],
      [
        "ĠliÃªn",
        -7.242387570899528
      ],
      [
        "ĠhÃ³a",
        -7.243818090022955
      ],
      [
        "ĠtÃłi",
        -7.247768720063402
      ],
      [
        "ĠC",
        -7.24957061814019
      ],
      [
        "Ġhai",
        -7.25014141034289
      ],
      [
        "Ġnhau",
        -7.251709525656853
      ],
      [
        "Ġliá»ĩu",
        -7.254266916680255
      ],
      [
        "Ġan",
        -7.259598764023833
      ],
      [
        "v",
        -7.270043029758346
      ],
      [
        "ĠhoÃłn",
        -7.279667042446494
      ],
      [
        "l",
        -7.284622493286662
      ],
      [
        "ĠbÃ¡n",
        -7.288031283925411
      ],
      [
        "âĢ¦",
        -7.288120138734156
      ],
      [
        "ĠB",
        -7.292534817289109
      ],
      [
        "Ġdáº«n",
        -7.292629096515389
      ],
      [
        "ĠtrÃŃ",
        -7.297299898822144
      ],
      [
        "Ġcuá»Ļc",
        -7.297510047982202
      ],
      [
        "Ġá»©ng",
        -7.298582317329883
      ],
      [
        "Ġmua",
        -7.3008456521272915
      ],
      [
        "Ġmuá»ĳn",
        -7.302039814087591
      ],
      [
        "ĠÃ¡n",
        -7.305039907404177
      ],
      [
        "Ġbao",
        -7.312708837442885
      ],
      [
        "Ġtay",
        -7.313235487151685
      ],
      [
        "ĠÄĳá»ģu",
        -7.322717029011136
      ],
      [
        "Ġláº§n",
        -7.32583925371957
      ],
      [
        "Ġkhu",
        -7.326251116197794
      ],
      [
        "ĠTrung",
        -7.327529400827377
      ],
      [
        "ĠmÃłu",
        -7.327960657691062
      ],
      [
        "ĠthÃªm",
        -7.331282515844133
      ],
      [
        "ĠHÃł",
        -7.334512513726002
      ],
      [
        "ĠTrong",
        -7.336398478213505
      ],
      [
        "Ġthu",
        -7.338401608337959
      ],
      [
        "ĠbÃ¡o",
        -7.342534463916326
      ],
      [
        "ĠváºŃy",
        -7.343137281997581
      ],
      [
        "Ġgiao",
        -7.343613688363906
      ],
      [
        "k",
        -7.3453962271391955
      ],
      [
        "Ġtrung",
        -7.345740771695713
      ],
      [
        "Ġlá»±c",
        -7.350652642658709
      ],
      [
        "1",
        -7.351264266276095
      ],
      [
        "ĠÄĳáº·c",
        -7.353218361099502
      ],
      [
        "Ġhá»į",
        -7.353405289684071
      ],
      [
        "ĠcÃ´",
        -7.355722425201414
      ],
      [
        "N",
        -7.356166192622096
      ],
      [
        "Ġ10",
        -7.362987246677836
      ],
      [
        "ĠtÃŃch",
        -7.365325959667084
      ],
      [
        "ĠÄĳá»ĭa",
        -7.368847152266317
      ],
      [
        "Ġtham",
        -7.374058029755496
      ],
      [
        "ĠbÃªn",
        -7.377221889194411
      ],
      [
        "ĠsÃ¡ng",
        -7.379148002911322
      ],
      [
        "ĠchuyÃªn",
        -7.379869866212543
      ],
      [
        "Ġtráº»",
        -7.380955807143382
      ],
      [
        "Ġsá»Ł",
        -7.38806711314402
      ],
      [
        "Ġbáº¥t",
        -7.390362953836208
      ],
      [
        "ĠphÆ°Æ¡ng",
        -7.39118210881381
      ],
      [
        "|",
        -7.392374509822355
      ],
      [
        "9",
        -7.394325351714018
      ],
      [
        "Ġváº¥n",
        -7.3990527833772255
      ],
      [
        "ĠCÃ¡c",
        -7.403769686124683
      ],
      [
        "Ġtiáº¿t",
        -7.404325167006638
      ],
      [
        "Ġráº±ng",
        -7.406094442020471
      ],
      [
        "ĠÄĳá»ķi",
        -7.406243612044538
      ],
      [
        "Ġsá»©c",
        -7.406531135776319
      ],
      [
        "Ġchuyá»ĥn",
        -7.4094253882153485
      ],
      [
        "Ġthá»§",
        -7.409728566725544
      ],
      [
        "Ġdá»ħ",
        -7.411937798895469
      ],
      [
        "r",
        -7.414924856066573
      ],
      [
        "Ġthi",
        -7.422429672841533
      ],
      [
        "Ġquá»ĳc",
        -7.423346530082931
      ],
      [
        "ĠÄĳáº·t",
        -7.424521972011723
      ],
      [
        "Ġtiáº¿ng",
        -7.428601579818656
      ],
      [
        "ĠnÃ³",
        -7.435602912301222
      ],
      [
        "Ġcháº¿",
        -7.43679811956342
      ],
      [
        "ĠcÃ¡",
        -7.438482310494381
      ],
      [
        "Ġgiáº£m",
        -7.440745829973066
      ],
      [
        "Ġcung",
        -7.441529593666667
      ],
      [
        "Ġxem",
        -7.443983524288548
      ],
      [
        "ĠthÃŃch",
        -7.444874409282184
      ],
      [
        "ĠngoÃłi",
        -7.445855599396326
      ],
      [
        "Ġvá»«a",
        -7.446825000129897
      ],
      [
        "Ġquy",
        -7.450328528421659
      ],
      [
        "Ġtuá»ķi",
        -7.451164357998566
      ],
      [
        "!",
        -7.460037132353758
      ],
      [
        "b",
        -7.467110282482503
      ],
      [
        "Ġbiáº¿n",
        -7.469923005011406
      ],
      [
        "ĠluÃ´n",
        -7.470183655519509
      ],
      [
        "Ġnghá»ĩ",
        -7.47057971373782
      ],
      [
        "ĠvÄĥn",
        -7.474183242237482
      ],
      [
        "Ġmá»įi",
        -7.476199558569705
      ],
      [
        "Ġchi",
        -7.476728750579191
      ],
      [
        "%",
        -7.47800908250824
      ],
      [
        "ĠthÃ¢n",
        -7.4830135901251555
      ],
      [
        "Ġthá»©",
        -7.483376750771141
      ],
      [
        "Ġnhá»ı",
        -7.483382109966637
      ],
      [
        "ĠcÃ¡i",
        -7.491957403252163
      ],
      [
        "ĠT",
        -7.493240707380188
      ],
      [
        "0",
        -7.493632607805411
      ],
      [
        "Ġmáº¡nh",
        -7.493757769118593
      ],
      [
        "Ġná»Ļi",
        -7.496076381565322
      ],
      [
        "ĠváºŃt",
        -7.496258447613791
      ],
      [
        "Ġtá»ķ",
        -7.499471729273742
      ],
      [
        "Ġsao",
        -7.499472979681537
      ],
      [
        "000",
        -7.500131187941372
      ],
      [
        "Ġká»³",
        -7.50215280399277
      ],
      [
        "ĠgÃ¢y",
        -7.503113151123092
      ],
      [
        "ĠÄĳáº¥t",
        -7.50456350353517
      ],
      [
        "Ġtá»īnh",
        -7.506244734819049
      ],
      [
        "ĠNá»Ļi",
        -7.506744741876066
      ],
      [
        "Ġnhanh",
        -7.514459005054956
      ],
      [
        "ĠÄĳÃ¡nh",
        -7.517388400984725
      ],
      [
        "3",
        -7.517595084855582
      ],
      [
        "ĠhÆ°á»Ľng",
        -7.5203854011642
      ],
      [
        "ĠchÆ°a",
        -7.526448086733032
      ],
      [
        "Ġkhiáº¿n",
        -7.527460241311825
      ],
      [
        "Ġbáº¯t",
        -7.529178490002668
      ],
      [
        "Ġlá»ĭch",
        -7.530419694517958
      ],
      [
        "ĠM",
        -7.53267408810377
      ],
      [
        "Ġgiá»Ŀ",
        -7.533569473550648
      ],
      [
        "ĠkhÃ³",
        -7.541883429569671
      ],
      [
        "Ġphá»ĳ",
        -7.544970097636453
      ],
      [
        "Ġngay",
        -7.546628270797344
      ],
      [
        "Ġmáº¯t",
        -7.551761218912267
      ],
      [
        "x",
        -7.552396607304345
      ],
      [
        "ĠnÆ¡i",
        -7.558972804771757
      ],
      [
        "ĠAnh",
        -7.559315262357854
      ],
      [
        "Ġtrá»£",
        -7.562231593502075
      ],
      [
        "ĠxÃ£",
        -7.562269150491277
      ],
      [
        "ĠphÃŃ",
        -7.564680490052721
      ],
      [
        "Ġgáº§n",
        -7.567451146978591
      ],
      [
        "Ġquyáº¿t",
        -7.568280711395619
      ],
      [
        "ĠÄĳÃ¬nh",
        -7.568711086648454
      ],
      [
        "ĠA",
        -7.569806476842427
      ],
      [
        "C",
        -7.569861735904645
      ],
      [
        "Ġvá»±c",
        -7.57154255729515
      ],
      [
        "ĠthuáºŃt",
        -7.572530615144764
      ],
      [
        "ĠtiÃªn",
        -7.576557003231581
      ],
      [
        "ĠbÃłn",
        -7.576804299384937
      ],
      [
        "ĠÄĳá»Ļi",
        -7.578532959811355
      ],
      [
        "Ġnáº¿u",
        -7.581169170964417
      ],
      [
        "T",
        -7.582783262669514
      ],
      [
        "Ġphá»¥c",
        -7.58419567647989
      ],
      [
        "Ġdiá»ĩn",
        -7.585006527578336
      ],
      [
        "Ġdá»±ng",
        -7.5909567501936
      ],
      [
        "Ġnghiá»ĩm",
        -7.593473041898424
      ],
      [
        "ĠtÆ°á»£ng",
        -7.595485002909905
      ],
      [
        "Ġbá»Łi",
        -7.595489701673545
      ],
      [
        "Ġphá»¥",
        -7.597609226774683
      ],
      [
        "Ġvá»ĩ",
        -7.612814168839515
      ],
      [
        "Ġtá»¥c",
        -7.615571990029464
      ],
      [
        "ĠphÃ¢n",
        -7.61907170592117
      ],
      [
        "B",
        -7.62084107822681
      ],
      [
        "Ġdu",
        -7.620846669698862
      ],
      [
        "Ġná»¯",
        -7.630546428587564
      ],
      [
        "Ġthay",
        -7.631080978454532
      ],
      [
        "ĠnguyÃªn",
        -7.633337386691023
      ],
      [
        "ĠMá»¹",
        -7.633399041095632
      ],
      [
        "Ġdiá»ħn",
        -7.634572260691989
      ],
      [
        "ĠvÃ´",
        -7.64212070373736
      ],
      [
        "ĠxÃ¢y",
        -7.652997379687076
      ],
      [
        "Ġchá»©ng",
        -7.653055781223671
      ],
      [
        "Ġthanh",
        -7.653238155529848
      ],
      [
        "Ġtriá»ĩu",
        -7.656212306417599
      ],
      [
        "ĠBá»Ļ",
        -7.656299708041521
      ],
      [
        "Ġlá»£i",
        -7.660690299214103
      ],
      [
        "ĠÄĳÃ¡",
        -7.660792889885203
      ],
      [
        "ĠdÆ°á»Ľi",
        -7.660941619201065
      ],
      [
        "Ġchiáº¿c",
        -7.663573590188987
      ],
      [
        "Ġhiá»ĥu",
        -7.666160553964827
      ],
      [
        "M",
        -7.6664066074219726
      ],
      [
        "ĠÄĳáº¡o",
        -7.669326748458003
      ],
      [
        "Ġmá»Ĺi",
        -7.66958262015177
      ],
      [
        "Ġkiáº¿n",
        -7.669604771027167
      ],
      [
        "Ġkhoáº£ng",
        -7.670727123985602
      ],
      [
        "ĠbÃ¬nh",
        -7.671113901576041
      ],
      [
        "ĠbÃ³ng",
        -7.672362766161147
      ],
      [
        "Ġlá»±a",
        -7.675306771677436
      ],
      [
        "Ġtá»«ng",
        -7.676195802879921
      ],
      [
        "ĠTuy",
        -7.676820407578179
      ],
      [
        "ĠÄĳá»ĵ",
        -7.680843843878241
      ],
      [
        "Ġchiáº¿n",
        -7.682200607082429
      ],
      [
        "ĠÄĳÆ°a",
        -7.68482180012386
      ],
      [
        "ĠláºŃp",
        -7.688297488292312
      ],
      [
        "Ġsáº¯c",
        -7.688377474887213
      ],
      [
        "Ġtruyá»ģn",
        -7.688434354156113
      ],
      [
        "Ġtinh",
        -7.688505886290798
      ],
      [
        "ĠÄĳáº¥u",
        -7.693180057650544
      ],
      [
        "ĠlÃºc",
        -7.695677323096577
      ],
      [
        "ĠVá»Ľi",
        -7.695877329317501
      ],
      [
        "Ġviáº¿t",
        -7.696286093904682
      ],
      [
        "Ġháº¿t",
        -7.697564542108681
      ],
      [
        "ĠTheo",
        -7.698238568988224
      ],
      [
        "Ġcá»Ńa",
        -7.699973734531325
      ],
      [
        "Ġná»ķi",
        -7.700529942744149
      ],
      [
        "Ġkiá»ĩn",
        -7.70094958907732
      ],
      [
        "Ġhoa",
        -7.705442220950399
      ],
      [
        "Ġtrá»±c",
        -7.709326120484738
      ],
      [
        "Ġthuá»Ļc",
        -7.709892859647843
      ],
      [
        "ĠNáº¿u",
        -7.712599243379403
      ],
      [
        "Ġphong",
        -7.714421862573264
      ],
      [
        "ĠsÄ©",
        -7.715438705109555
      ],
      [
        "ĠdÃłi",
        -7.715915358894174
      ],
      [
        "Ġmá»©c",
        -7.7163934511823395
      ],
      [
        "Ġrá»ĵi",
        -7.716462430203329
      ],
      [
        "ĠÄĳá»§",
        -7.718452060166984
      ],
      [
        "Ġchá»ĳng",
        -7.7278354280895485
      ],
      [
        "Ġtá»Ń",
        -7.729759030974392
      ],
      [
        "+",
        -7.729976147419185
      ],
      [
        "ĠÄĳa",
        -7.738279952803186
      ],
      [
        "Ġkháº£",
        -7.740595550886246
      ],
      [
        "ĠNguyá»ħn",
        -7.743656941198406
      ],
      [
        "ĠtÃªn",
        -7.753524396994905
      ],
      [
        "ĠsÃ¡ch",
        -7.755337445434073
      ],
      [
        "ĠL",
        -7.755807784888035
      ],
      [
        "Ġchuáº©n",
        -7.756505360560478
      ],
      [
        "Ġvi",
        -7.758252578799208
      ],
      [
        "Ġtra",
        -7.759872275489053
      ],
      [
        "Ġbá»ĳ",
        -7.760510528558296
      ],
      [
        "Ġcáº£nh",
        -7.763202087774406
      ],
      [
        "ĠMá»Ļt",
        -7.763590742882752
      ],
      [
        "Ġmáº¹",
        -7.764455799196011
      ],
      [
        "ĠH",
        -7.76699031924862
      ],
      [
        "ĠBáº¡n",
        -7.767713749111417
      ],
      [
        "Ġgiá»¯a",
        -7.767924197426055
      ],
      [
        "4",
        -7.7750018120005855
      ],
      [
        "ĠV",
        -7.78439581304675
      ],
      [
        "Ġhá»¯u",
        -7.786735592308581
      ],
      [
        "Ġhá»Ļ",
        -7.792507341787237
      ],
      [
        "Ġlá»Ŀi",
        -7.797516299586839
      ],
      [
        "Ġbá»ı",
        -7.804473234755916
      ],
      [
        "ĠSau",
        -7.805603740304022
      ],
      [
        "Ġcá»ķ",
        -7.806905652674239
      ],
      [
        "ĠÄĳáº£m",
        -7.808683914986041
      ],
      [
        "Ġgá»ĵm",
        -7.808989925623772
      ],
      [
        "Ġmáº«u",
        -7.81029391644142
      ],
      [
        "S",
        -7.810839520459947
      ],
      [
        "ĠcÃ¢y",
        -7.812818240787845
      ],
      [
        "ĠkhÃŃ",
        -7.816184874900125
      ],
      [
        "Ġmá»¥c",
        -7.818644625267057
      ],
      [
        "ĠnháºŃp",
        -7.821535102985278
      ],
      [
        "ĠchÃ¢n",
        -7.823407329140204
      ],
      [
        "Ġcá»©u",
        -7.823430732169566
      ],
      [
        "ĠNhá»¯ng",
        -7.82425773643463
      ],
      [
        "Ġtá»·",
        -7.8253718854455805
      ],
      [
        "Ġchung",
        -7.826792711067744
      ],
      [
        "ĠbÃ©",
        -7.829341471015633
      ],
      [
        "Ġban",
        -7.829635985230263
      ],
      [
        "Ġso",
        -7.831641753526874
      ],
      [
        "ĠxÃ¡c",
        -7.836256077746901
      ],
      [
        "Ġtiáº¿n",
        -7.836279405839456
      ],
      [
        "ĠchÃŃ",
        -7.836502955416046
      ],
      [
        "ĠG",
        -7.83896329544274
      ],
      [
        "ĠsÃ¡t",
        -7.840258116888778
      ],
      [
        "Ġtáº¥t",
        -7.84089550818044
      ],
      [
        "Ġkhai",
        -7.843128689023006
      ],
      [
        "ĠKhi",
        -7.844566243194391
      ],
      [
        "ĠÃ¡p",
        -7.847853108585909
      ],
      [
        "ĠÄĳáº§y",
        -7.849763323680792
      ],
      [
        "nh",
        -7.850125860778288
      ],
      [
        "ĠtráºŃn",
        -7.85168283246178
      ],
      [
        "ĠphÃ¹",
        -7.855941178138327
      ],
      [
        "Ġquáº£n",
        -7.855995148917508
      ],
      [
        "A",
        -7.856100754393475
      ],
      [
        "Ġgáº·p",
        -7.856141847802176
      ],
      [
        "ch",
        -7.858379575540836
      ],
      [
        "ĠCÃ³",
        -7.85893948878568
      ],
      [
        "Ġyáº¿u",
        -7.864192388907345
      ],
      [
        "Ġká»¹",
        -7.864419846741887
      ],
      [
        "Ġháº¡n",
        -7.865521016132822
      ],
      [
        "ĠtÆ°Æ¡ng",
        -7.868488754554406
      ],
      [
        ").",
        -7.868943471628219
      ],
      [
        "Ġcá»±c",
        -7.870003119640352
      ],
      [
        "ĠBÃ¬nh",
        -7.873603040360415
      ],
      [
        "ĠcÄĥn",
        -7.875154890145339
      ],
      [
        "Ġquyá»ģn",
        -7.878457536180179
      ],
      [
        "ĠtháºŃt",
        -7.883825696681175
      ],
      [
        "Ġchia",
        -7.884704175909699
      ],
      [
        "V",
        -7.885306265201725
      ],
      [
        "Ġtiá»ĩn",
        -7.886030165142048
      ],
      [
        "Ġkiá»ĥm",
        -7.889391676855327
      ],
      [
        "Ġsang",
        -7.893337346780299
      ],
      [
        "ĠlÃ²ng",
        -7.893724498330616
      ],
      [
        "ĠquÃ½",
        -7.895132372944392
      ],
      [
        "ĠhÆ°á»Łng",
        -7.897177418940187
      ],
      [
        "ĠÄĳá»Ŀi",
        -7.9025216556766225
      ],
      [
        "Ġgá»įi",
        -7.903762471882562
      ],
      [
        "Ġdung",
        -7.906268475538592
      ],
      [
        "ĠgiÃ¡o",
        -7.908889393236649
      ],
      [
        "ĠcÃłng",
        -7.909213542240254
      ],
      [
        "Ġtá»ĳi",
        -7.9118079939664625
      ],
      [
        "Ġmá»Ł",
        -7.913976403725645
      ],
      [
        "ĠcÃ¡o",
        -7.914298258037059
      ],
      [
        "L",
        -7.914620205379091
      ],
      [
        "ĠVÄĥn",
        -7.916938924947194
      ],
      [
        "ĠkhÃ¡",
        -7.916982419567306
      ],
      [
        "ĠnhÃ¬n",
        -7.919470570101158
      ],
      [
        "ĠlÆ°u",
        -7.9207385199923
      ],
      [
        "Ġphim",
        -7.921112360531236
      ],
      [
        "Ġcáº¡nh",
        -7.922155685686743
      ],
      [
        "K",
        -7.923954839027838
      ],
      [
        "Ġdi",
        -7.932288092770722
      ],
      [
        "ĠcÃ¢u",
        -7.934107034436002
      ],
      [
        "ĠdÆ°á»¡ng",
        -7.934468392703403
      ],
      [
        "ĠD",
        -7.937356242781736
      ],
      [
        "Ġhá»Ĺ",
        -7.940837939573411
      ],
      [
        "ĠKhÃ´ng",
        -7.941159800483151
      ],
      [
        "ĠtÃŃn",
        -7.945229093245729
      ],
      [
        "Ġ12",
        -7.947697047191564
      ],
      [
        "Ġminh",
        -7.947747504295084
      ],
      [
        "ĠK",
        -7.949353049210592
      ],
      [
        "Ġ20",
        -7.952733883129909
      ],
      [
        "Ġmáº¡ng",
        -7.956523367470631
      ],
      [
        "Ġdáº¡ng",
        -7.957097538734978
      ],
      [
        "Ġnhiá»ĩm",
        -7.957636490168685
      ],
      [
        "Ġná»¯a",
        -7.958321218302203
      ],
      [
        "ĠtrÃ²",
        -7.961129231274205
      ],
      [
        "Ġkhá»ıe",
        -7.96117442309286
      ],
      [
        "Ġnguá»ĵn",
        -7.964644181329906
      ],
      [
        "ĠÄĳáº¡t",
        -7.967242782868919
      ],
      [
        "ĠÄĳÃºng",
        -7.96844476577551
      ],
      [
        "Ġgiá»¯",
        -7.968808922836363
      ],
      [
        "G",
        -7.971614306730682
      ],
      [
        "ĠÃŃt",
        -7.9725442750699855
      ],
      [
        "ĠÄĲáº¡i",
        -7.973219484802701
      ],
      [
        "Ġmáº¥t",
        -7.974907158118093
      ],
      [
        "ĠtrÆ°á»Łng",
        -7.975358510283282
      ],
      [
        "Ġrá»Ļng",
        -7.97836491330898
      ],
      [
        "Ġai",
        -7.980110114230817
      ],
      [
        "ĠÄĲÃ¢y",
        -7.98178756110479
      ],
      [
        "Ġgame",
        -7.982565023584042
      ],
      [
        "ĠthÆ°",
        -7.983199656971468
      ],
      [
        "ĠÃ¢m",
        -7.986195468802546
      ],
      [
        "Ġhá»ıi",
        -7.988733907878583
      ],
      [
        "ĠváºŃn",
        -7.992012208544505
      ],
      [
        "Ġhá»ĵ",
        -7.995260740018498
      ],
      [
        "ĠMinh",
        -7.995980724796178
      ],
      [
        "Ġchá»ĭ",
        -7.99931586021235
      ],
      [
        "ĠÄĳá»Ļc",
        -8.000464664087918
      ],
      [
        "Ġbiá»ĥu",
        -8.005791980405855
      ],
      [
        "ĠrÃµ",
        -8.006154198997452
      ],
      [
        "D",
        -8.006783215912126
      ],
      [
        "ĠvÃ¹ng",
        -8.009717846021335
      ],
      [
        "Ġthuá»ĳc",
        -8.010690188743844
      ],
      [
        "Ġtráº¡ng",
        -8.0129226875151
      ],
      [
        "Ġthoáº¡i",
        -8.0130487173968
      ],
      [
        "ĠngÃłnh",
        -8.014542506142197
      ],
      [
        "Ġchuyá»ĩn",
        -8.021069810107251
      ],
      [
        "Ġdanh",
        -8.021204483668846
      ],
      [
        "10",
        -8.02472774060901
      ],
      [
        "ĠhÃ£y",
        -8.024867994409805
      ],
      [
        "Ġgiáº£",
        -8.025265938663475
      ],
      [
        "ĠnhÃ©",
        -8.025889344406318
      ],
      [
        "ĠdÃ²ng",
        -8.027585052065199
      ],
      [
        "ĠnghÄ©a",
        -8.029296406539446
      ],
      [
        "Ġtá»ķng",
        -8.031755598689326
      ],
      [
        "ĠNhÃł",
        -8.035418233008015
      ],
      [
        "ĠAn",
        -8.035618467483483
      ],
      [
        "Ġtranh",
        -8.035682112225366
      ],
      [
        "'",
        -8.038389905642031
      ],
      [
        "Ġca",
        -8.042322801611745
      ],
      [
        "ĠbÃł",
        -8.045280106537222
      ],
      [
        "ĠTP",
        -8.050838373267942
      ],
      [
        "ĠChÃŃnh",
        -8.056733049632829
      ],
      [
        "ĠriÃªng",
        -8.057531281665053
      ],
      [
        "Ġnhu",
        -8.060519180379092
      ],
      [
        "),",
        -8.063352392228268
      ],
      [
        "ĠÄĳoÃłn",
        -8.063408463013213
      ],
      [
        "Ġcá»©",
        -8.06598465447746
      ],
      [
        "Ġbay",
        -8.067387727669269
      ],
      [
        "H",
        -8.069296537579241
      ],
      [
        "Ġtá»ĳ",
        -8.07465091557649
      ],
      [
        "ĠmÃ´i",
        -8.08112240326925
      ],
      [
        "Ġ19",
        -8.081179116917287
      ],
      [
        "Ġlá»Ľp",
        -8.083335030378688
      ],
      [
        "ĠchÆ°Æ¡ng",
        -8.085137339811268
      ],
      [
        "ĠmÃ³n",
        -8.087398939998995
      ],
      [
        "Ġtráº£",
        -8.08850381461118
      ],
      [
        "Ġin",
        -8.08899283960935
      ],
      [
        "ĠdÃłnh",
        -8.091282924790269
      ],
      [
        "Ġcá»¥",
        -8.095986923559792
      ],
      [
        "ĠsÃ¢n",
        -8.100013749624017
      ],
      [
        "ĠÆ°u",
        -8.104677728742057
      ],
      [
        "Ġnam",
        -8.10515703073023
      ],
      [
        "Ġba",
        -8.10864423882456
      ],
      [
        "ĠdÃ¹",
        -8.10885226991857
      ],
      [
        "Ġtháº¥t",
        -8.109372965529696
      ],
      [
        "ĠE",
        -8.111335090708167
      ],
      [
        "Ġdá»¥c",
        -8.112366935190515
      ],
      [
        "ĠtÆ°á»Łng",
        -8.112947389540402
      ],
      [
        "ĠThanh",
        -8.113689697956623
      ],
      [
        "Ġcuá»ĳi",
        -8.113941027334159
      ],
      [
        "ĠhÃºt",
        -8.114260285881699
      ],
      [
        "ĠÃ¡o",
        -8.116598640841335
      ],
      [
        "P",
        -8.117575063577481
      ],
      [
        "ĠP",
        -8.118876723631443
      ],
      [
        "ĠThÃłnh",
        -8.119032008706752
      ],
      [
        "ĠÄĳÃ¡ng",
        -8.12014257250811
      ],
      [
        "Ġkhoa",
        -8.124361537525933
      ],
      [
        "Ġláº¥y",
        -8.12476174344566
      ],
      [
        "ĠdÃłng",
        -8.126008811729408
      ],
      [
        "Ġcháº¯c",
        -8.12701094805943
      ],
      [
        "ĠlÃ¢u",
        -8.127635193262005
      ],
      [
        "ĠNgoÃłi",
        -8.128867206219304
      ],
      [
        "Ġ15",
        -8.131292018535845
      ],
      [
        "Ġvui",
        -8.131338370204007
      ],
      [
        "Ġáº¥y",
        -8.131992912087574
      ],
      [
        "Ġcá»ĳ",
        -8.135483958846953
      ],
      [
        "Ġká»ĥ",
        -8.136630520694325
      ],
      [
        "ĠÄĲiá»ģu",
        -8.136787264415274
      ],
      [
        "ĠmÃ¹a",
        -8.137117429128516
      ],
      [
        "Ġnhiá»ĩt",
        -8.139459993668469
      ],
      [
        "Ġtáº£i",
        -8.139796772351058
      ],
      [
        "Ġgiáº£n",
        -8.140468008791554
      ],
      [
        "Ġchá»ĭu",
        -8.147797876768786
      ],
      [
        "Ġbiá»ĥn",
        -8.14863282769462
      ],
      [
        "ĠcÆ°",
        -8.149509338141481
      ],
      [
        "ĠNgÆ°á»Ŀi",
        -8.150345928337526
      ],
      [
        "on",
        -8.151336381900926
      ],
      [
        "ĠÄĲá»ĥ",
        -8.152188033359526
      ],
      [
        "ĠvÃłng",
        -8.152878442494117
      ],
      [
        "ĠvÃ²ng",
        -8.154490793097672
      ],
      [
        "ĠkÃŃch",
        -8.155939133442583
      ],
      [
        "ĠNháºŃt",
        -8.155964847192257
      ],
      [
        "Ġtháº¯ng",
        -8.158904152892417
      ],
      [
        "Ġ11",
        -8.159846534797309
      ],
      [
        "ĠphÃ¡",
        -8.163492812558559
      ],
      [
        "Ġxá»Ń",
        -8.163779017049043
      ],
      [
        "ĠnÃ¢ng",
        -8.16393146530655
      ],
      [
        "19",
        -8.165239068631184
      ],
      [
        "ĠphÃŃa",
        -8.166617484885792
      ],
      [
        "ĠgÃ¡i",
        -8.166942846093782
      ],
      [
        "ĠtoÃ¡n",
        -8.168190761884725
      ],
      [
        "Ġsáº»",
        -8.16870436024089
      ],
      [
        "ĠHá»Ļi",
        -8.170193049997344
      ],
      [
        "Ġphá»§",
        -8.170554466685036
      ],
      [
        "ĠÄĲ",
        -8.17268163814236
      ],
      [
        "Ġviá»ĩn",
        -8.182235514644132
      ],
      [
        "ra",
        -8.182927377607784
      ],
      [
        "Ġhuyá»ĩn",
        -8.186791870049877
      ],
      [
        "ĠI",
        -8.188060890592313
      ],
      [
        "Ġto",
        -8.188800556952687
      ],
      [
        "en",
        -8.189159089930412
      ],
      [
        "in",
        -8.190720254435345
      ],
      [
        "Ġtuyáº¿n",
        -8.19598554083496
      ],
      [
        "er",
        -8.198871664472685
      ],
      [
        "ĠÃŃch",
        -8.205221795228097
      ],
      [
        "Ġtháº§n",
        -8.206109320371455
      ],
      [
        "Ġtráº¯ng",
        -8.207120208562662
      ],
      [
        "Ġhoáº¡ch",
        -8.208074375519017
      ],
      [
        "Ġthiá»ĩn",
        -8.210608794221908
      ],
      [
        "ĠÄĲá»©c",
        -8.210715290032727
      ],
      [
        "Ġxanh",
        -8.213291116176764
      ],
      [
        "Ġkháº©u",
        -8.214336043617873
      ],
      [
        "ĠÄĳoáº¡n",
        -8.215096418056145
      ],
      [
        "Ġ30",
        -8.226846078827503
      ],
      [
        "ĠÄĳÃ´i",
        -8.228486587675755
      ],
      [
        "&",
        -8.231599785835995
      ],
      [
        "Ġuá»ĳng",
        -8.23453432941282
      ],
      [
        "Ġsuáº¥t",
        -8.236171944586596
      ],
      [
        "Ġkhoáº£n",
        -8.23862126305419
      ],
      [
        "Ġxuá»ĳng",
        -8.239379477407601
      ],
      [
        "ĠchÃº",
        -8.24094845761271
      ],
      [
        "Ġtuyá»ĩt",
        -8.241068549007725
      ],
      [
        "uy",
        -8.24254486165064
      ],
      [
        "ĠhÃ²a",
        -8.244332064297355
      ],
      [
        "ĠluáºŃt",
        -8.245384229964749
      ],
      [
        "Ġlo",
        -8.245932299478294
      ],
      [
        "ĠChá»§",
        -8.252028512937786
      ],
      [
        "ĠÄĳÃ´ng",
        -8.25250961684078
      ],
      [
        "ĠbÆ°á»Ľc",
        -8.253107776861206
      ],
      [
        "an",
        -8.256672640327489
      ],
      [
        "Ġdáº§u",
        -8.257189616675292
      ],
      [
        "Ġnáº±m",
        -8.263758408315477
      ],
      [
        "Ġnghá»ĭ",
        -8.266897732991643
      ],
      [
        "ĠÄĳau",
        -8.266936986962984
      ],
      [
        "ĠÄĲÃ´ng",
        -8.272264930358874
      ],
      [
        "ĠTá»ķng",
        -8.273080761744202
      ],
      [
        "ĠVÃ¬",
        -8.274816238919644
      ],
      [
        "Ġná»ģn",
        -8.275978784295923
      ],
      [
        "Ġkiáº¿m",
        -8.276449368547341
      ],
      [
        "ĠphÃ©p",
        -8.277016526539876
      ],
      [
        "ĠÄĲá»ĵng",
        -8.279019543134364
      ],
      [
        "ĠNhÆ°ng",
        -8.281572032949658
      ],
      [
        "com",
        -8.283544455981078
      ],
      [
        "ĠX",
        -8.284489349189544
      ],
      [
        "Ġxa",
        -8.288803546998466
      ],
      [
        "Ġlá»ĩ",
        -8.291752844294267
      ],
      [
        "U",
        -8.29454079827838
      ],
      [
        "ĠcáºŃp",
        -8.295676387634936
      ],
      [
        "ĠÄĳÃ³ng",
        -8.29671601609298
      ],
      [
        "Ġhá»ĵi",
        -8.297103815654394
      ],
      [
        "Ġsáº¡ch",
        -8.298710439747245
      ],
      [
        "ĠTá»«",
        -8.299013175336423
      ],
      [
        "ĠquÃ¢n",
        -8.29918646236654
      ],
      [
        "ĠDo",
        -8.304805481949511
      ],
      [
        "12",
        -8.306000499018507
      ],
      [
        "Ġnghe",
        -8.306739099586004
      ],
      [
        "ĠHá»ĵ",
        -8.307196224257172
      ],
      [
        "ĠsÆ¡",
        -8.30823175370456
      ],
      [
        "ĠmÃ´",
        -8.309162582405788
      ],
      [
        "Ġtuáº§n",
        -8.309794591453775
      ],
      [
        "Ġxin",
        -8.311216304390106
      ],
      [
        "ĠnháºŃt",
        -8.311733314318541
      ],
      [
        "ĠBan",
        -8.31198335805028
      ],
      [
        "Ġnháº±m",
        -8.312606770408502
      ],
      [
        "ĠBáº¯c",
        -8.31386691692691
      ],
      [
        "Ġháº¥p",
        -8.315699587051853
      ],
      [
        "Ġgá»Ńi",
        -8.317368579734106
      ],
      [
        "Ġgiá»ĳng",
        -8.322191421852631
      ],
      [
        "Ġthiáº¿u",
        -8.32452192658291
      ],
      [
        "ĠHoa",
        -8.326120337341818
      ],
      [
        "ĠphÃºt",
        -8.32626588348884
      ],
      [
        "Ġmá»ģm",
        -8.327433646706849
      ],
      [
        "11",
        -8.328278872402835
      ],
      [
        "ĠR",
        -8.328347343097068
      ],
      [
        "ĠhÃ´m",
        -8.32946712835433
      ],
      [
        "ĠÄĳÃ¡p",
        -8.329986058324643
      ],
      [
        "ĠtrÃ¡i",
        -8.331601652631528
      ],
      [
        "Ġngá»§",
        -8.334398903799064
      ],
      [
        "Ġghi",
        -8.335069862558127
      ],
      [
        "ĠnghÄ©",
        -8.336148615242577
      ],
      [
        "ĠThÃ´ng",
        -8.336525183427712
      ],
      [
        "Ġráº»",
        -8.338387436219774
      ],
      [
        "Ġcá»Ļng",
        -8.343417714826293
      ],
      [
        "ĠkhÄĥn",
        -8.345113195770095
      ],
      [
        "Ġláº¡nh",
        -8.345668145841106
      ],
      [
        "ĠÄĳÃłn",
        -8.349773509991964
      ],
      [
        "ĠNgÃły",
        -8.350354950958929
      ],
      [
        "Ġtráº£i",
        -8.352799647298088
      ],
      [
        "Ġchiá»ģu",
        -8.35552751290232
      ],
      [
        "ĠchÃ³ng",
        -8.35629900846754
      ],
      [
        "âĢĿ.",
        -8.35684670274774
      ],
      [
        "ĠÄĳÃ¢u",
        -8.358358250512458
      ],
      [
        "Ġváº»",
        -8.362240126945622
      ],
      [
        "ĠmÃłn",
        -8.363622588372058
      ],
      [
        "ĠcÃ¢n",
        -8.365187199396292
      ],
      [
        "ĠthÆ°á»Łng",
        -8.370846769830605
      ],
      [
        "ĠgiÃ¡c",
        -8.372672403618846
      ],
      [
        "ĠVÃł",
        -8.373093868056174
      ],
      [
        "Ġtá»©c",
        -8.373464394686087
      ],
      [
        "O",
        -8.375166467082826
      ],
      [
        "Ġpháº¡m",
        -8.377253947511916
      ],
      [
        "Ġchá»¯a",
        -8.377676336185388
      ],
      [
        "ĠhÃ£ng",
        -8.378222855639914
      ],
      [
        "Ġnháº¹",
        -8.380563520167517
      ],
      [
        "Ġphá»ĳi",
        -8.382420661457974
      ],
      [
        "I",
        -8.382889491277927
      ],
      [
        "ĠnÃ³ng",
        -8.384988502290287
      ],
      [
        "ĠnhÃ³m",
        -8.385654979825794
      ],
      [
        "ĠF",
        -8.393304332800104
      ],
      [
        "Äĳ",
        -8.393501758525058
      ],
      [
        "Ġvá»ĳn",
        -8.39697301105528
      ],
      [
        "Ġngoáº¡i",
        -8.396990037304006
      ],
      [
        "ĠGiÃ¡",
        -8.399495428444716
      ],
      [
        "ĠluáºŃn",
        -8.400031375810945
      ],
      [
        "ĠmÃ¡i",
        -8.401875495833533
      ],
      [
        "ĠmÃ´n",
        -8.401890090748072
      ],
      [
        "ĠgÃ³p",
        -8.403403506518641
      ],
      [
        "Ġnguy",
        -8.404344650183399
      ],
      [
        "Ġmá»¹",
        -8.40710822803986
      ],
      [
        "ĠTáº¡i",
        -8.410919394504965
      ],
      [
        "ĠnghiÃªn",
        -8.420693492305087
      ],
      [
        "ĠHáº£i",
        -8.421441555652521
      ],
      [
        "ĠrÄĥng",
        -8.422570358983036
      ],
      [
        "ĠCÃ¡ch",
        -8.422913635424035
      ],
      [
        "X",
        -8.42721994091833
      ],
      [
        "Ġbá»ķ",
        -8.428714269364493
      ],
      [
        "ĠBáº£n",
        -8.429146765737709
      ],
      [
        "Ġ100",
        -8.429677270840367
      ],
      [
        "Ġcháº¡y",
        -8.43062885108863
      ],
      [
        "ĠLong",
        -8.437176865620483
      ],
      [
        "Ġtrá»Ŀi",
        -8.438592114246081
      ],
      [
        "Ġtuyá»ĥn",
        -8.43902105842793
      ],
      [
        "ĠTÃ¢y",
        -8.440678978925057
      ],
      [
        "Ġná»ĳi",
        -8.44185907053863
      ],
      [
        "ĠkÃŃnh",
        -8.442472852290267
      ],
      [
        "ĠchÄĥm",
        -8.443846538469442
      ],
      [
        "Ġchá»ĵng",
        -8.444233422418852
      ],
      [
        "ĠChÃºng",
        -8.444655399052417
      ],
      [
        "ĠxÃ©t",
        -8.44500299811306
      ],
      [
        "ĠháºŃu",
        -8.447701064950234
      ],
      [
        "Ġkháº£o",
        -8.447983399168232
      ],
      [
        "Ġtáº§ng",
        -8.451037084471992
      ],
      [
        "ĠthuáºŃn",
        -8.453044441127819
      ],
      [
        "Ġcáº£i",
        -8.453279677367014
      ],
      [
        "ĠsÃ¢u",
        -8.455951049990192
      ],
      [
        "Ġgá»Ĺ",
        -8.45779287123012
      ],
      [
        "ĠsÆ°",
        -8.458827394661613
      ],
      [
        "ĠY",
        -8.459770615422155
      ],
      [
        "Ġlao",
        -8.460154139879359
      ],
      [
        "Ġsá»Ńa",
        -8.460788573055208
      ],
      [
        "ĠbÃ¡c",
        -8.46080419872582
      ],
      [
        "ĠHoÃłng",
        -8.460820504748774
      ],
      [
        "Ġnhá»Ľ",
        -8.460993804740957
      ],
      [
        "Ġmáº¯c",
        -8.462411517856548
      ],
      [
        "Ġkhá»ıi",
        -8.463146477829536
      ],
      [
        "ĠÄĳÃ´",
        -8.463810519471595
      ],
      [
        "Ġgiáº¥y",
        -8.463894318637074
      ],
      [
        "ĠTrÆ°á»Ŀng",
        -8.464133557650879
      ],
      [
        "ĠDÆ°Æ¡ng",
        -8.4678152832056
      ],
      [
        "Ġtá»ĭch",
        -8.468132342448483
      ],
      [
        "Ġmong",
        -8.469316925727806
      ],
      [
        "Ġchá»īnh",
        -8.470902262266462
      ],
      [
        "Ġphá»ķ",
        -8.47198753247653
      ],
      [
        "ĠThÃ¡i",
        -8.47211131792852
      ],
      [
        "Ġmáº¡i",
        -8.473109664475418
      ],
      [
        "Ġ09",
        -8.473679808515081
      ],
      [
        "Ġlá»ħ",
        -8.474805909580946
      ],
      [
        "ĠÄĳáº£o",
        -8.477900621095468
      ],
      [
        "ĠÄĳá»ı",
        -8.480152880286095
      ],
      [
        "Ġhiá»ĥm",
        -8.48043543558681
      ],
      [
        "ĠSÆ¡n",
        -8.481527905541974
      ],
      [
        "Ġnháº¡c",
        -8.483125625792121
      ],
      [
        "00",
        -8.483941135002851
      ],
      [
        "ĠthuÃª",
        -8.484707731540032
      ],
      [
        "th",
        -8.489903026093831
      ],
      [
        "ĠÃĶng",
        -8.492996445596372
      ],
      [
        "ĠlÃ¡",
        -8.493006065622927
      ],
      [
        "Ġ18",
        -8.494265061887665
      ],
      [
        "ĠdÃ¢y",
        -8.494480478194008
      ],
      [
        "Ġnghá»ī",
        -8.495140028022837
      ],
      [
        "Ġ16",
        -8.497475871838903
      ],
      [
        "ĠtrÃ¡nh",
        -8.498034059965882
      ],
      [
        "ĠngÃ´i",
        -8.499062928194169
      ],
      [
        "ĠsiÃªu",
        -8.499893478658244
      ],
      [
        "ĠÃ´",
        -8.501508864819197
      ],
      [
        "ĠxuyÃªn",
        -8.502646873404885
      ],
      [
        "ĠphiÃªn",
        -8.504036820394003
      ],
      [
        "ĠThá»ĭ",
        -8.504285236211961
      ],
      [
        "ĠHiá»ĩn",
        -8.50565828048666
      ],
      [
        "ĠkhÃ³a",
        -8.505774348139154
      ],
      [
        "ĠlÄ©nh",
        -8.507330562374385
      ],
      [
        "ĠtÃ³c",
        -8.508656393814467
      ],
      [
        "w",
        -8.509633943282093
      ],
      [
        "ĠkhÃ¡m",
        -8.512335530047729
      ],
      [
        "Ġtháº¥p",
        -8.5132683387855
      ],
      [
        "ĠbáºŃt",
        -8.515170064516292
      ],
      [
        "ĠHÃłn",
        -8.516563459214124
      ],
      [
        "ĠngÃ¢n",
        -8.516663697694769
      ],
      [
        "Ġcháº¯n",
        -8.51932763335889
      ],
      [
        "ĠbÃ¡nh",
        -8.519735069402563
      ],
      [
        "Ġvá»įng",
        -8.520085783214212
      ],
      [
        "ĠTrang",
        -8.521866689949992
      ],
      [
        "Ġ14",
        -8.522007706923029
      ],
      [
        "Ġkiá»ĥu",
        -8.522348719751946
      ],
      [
        "Ġxáº£y",
        -8.52254680257707
      ],
      [
        "ĠmÃ¡u",
        -8.526504771692773
      ],
      [
        "ĠkÃ©o",
        -8.527064181266503
      ],
      [
        "ĠthÃº",
        -8.528237230236373
      ],
      [
        "ĠÄĳá»įc",
        -8.53100736664843
      ],
      [
        "Ġvai",
        -8.531270578331238
      ],
      [
        "F",
        -8.531623945428422
      ],
      [
        "ĠO",
        -8.532381855178137
      ],
      [
        "le",
        -8.534747113292761
      ],
      [
        "Ġmiá»ħn",
        -8.537132205694066
      ],
      [
        "Ġbuá»ķi",
        -8.537149792620108
      ],
      [
        "Ġáº¥n",
        -8.53808725055885
      ],
      [
        "ĠHÃ£y",
        -8.540163590563811
      ],
      [
        "W",
        -8.54025101666908
      ],
      [
        "Ġchá»©a",
        -8.540548496743899
      ],
      [
        "ĠvÃłi",
        -8.542173155287637
      ],
      [
        "ĠTÃ´i",
        -8.543783298168933
      ],
      [
        "ĠÄĳá»©ng",
        -8.546624374940498
      ],
      [
        "Ġthá»§y",
        -8.547909011628368
      ],
      [
        "Ġduy",
        -8.550912894423846
      ],
      [
        "ĠU",
        -8.554100171346732
      ],
      [
        "ĠmÃ£",
        -8.555588597083124
      ],
      [
        "Ġvá»£",
        -8.55817440442433
      ],
      [
        "ĠPhÃº",
        -8.558275499506367
      ],
      [
        "ÄĲ",
        -8.558442856669549
      ],
      [
        "Ġ13",
        -8.559238034190276
      ],
      [
        "Ġbáº¿p",
        -8.559440309416509
      ],
      [
        "Ġmay",
        -8.559790126483518
      ],
      [
        "Ġ24",
        -8.559928455546837
      ],
      [
        "Ġpháº£n",
        -8.560047784827425
      ],
      [
        "ĠtáºŃn",
        -8.560765246277043
      ],
      [
        "ĠMÃ¡y",
        -8.563523649594286
      ],
      [
        "ĠÃģ",
        -8.56584423352203
      ],
      [
        "ĠLiÃªn",
        -8.567556898536445
      ],
      [
        "f",
        -8.567592617270552
      ],
      [
        "Ġháº¡i",
        -8.568449065236356
      ],
      [
        "Ġsá»¯a",
        -8.57298022878369
      ],
      [
        "Ġtháº©m",
        -8.57364997755739
      ],
      [
        "ĠBa",
        -8.574184060688284
      ],
      [
        "ta",
        -8.574399546969492
      ],
      [
        "ĠvÆ°á»£t",
        -8.575881448854657
      ],
      [
        "ĠÄĳÃło",
        -8.577377158498969
      ],
      [
        "Ġdáº¥u",
        -8.579984366006014
      ],
      [
        "ĠquáºŃn",
        -8.58169189496889
      ],
      [
        "Ġquanh",
        -8.58221934465983
      ],
      [
        "ĠÃ¡nh",
        -8.583596837703803
      ],
      [
        "al",
        -8.586436002302474
      ],
      [
        "Ġthao",
        -8.587100380181543
      ],
      [
        "Ġngon",
        -8.587547144364883
      ],
      [
        "ĠxÃºc",
        -8.588223648800156
      ],
      [
        "ĠlÃ£nh",
        -8.589896947139676
      ],
      [
        "Ġtrai",
        -8.590175879230703
      ],
      [
        "Ġthiá»ĩu",
        -8.593204071243884
      ],
      [
        "Ġnhiá»ħm",
        -8.596463966681487
      ],
      [
        "ĠkhÃ´",
        -8.597132549175816
      ],
      [
        "R",
        -8.597235495812038
      ],
      [
        "ong",
        -8.599819945865425
      ],
      [
        "ĠsÃ³c",
        -8.600630118549034
      ],
      [
        "ĠthiÃªn",
        -8.601159213480246
      ],
      [
        "ĠthÃ¡i",
        -8.601438485303301
      ],
      [
        "ĠÄĳem",
        -8.602704657936766
      ],
      [
        "ĠhÆ°Æ¡ng",
        -8.608728342344376
      ],
      [
        "ĠÄĳÃªm",
        -8.609554074543098
      ],
      [
        "Ġtá»ĳc",
        -8.609953214909032
      ],
      [
        "Ġthá»Ń",
        -8.610087956221838
      ],
      [
        "Ġbáº£ng",
        -8.614502750076984
      ],
      [
        "Ġnghá»ģ",
        -8.61815678311555
      ],
      [
        "Ġtai",
        -8.61910903312406
      ],
      [
        "ĠcÆ°á»Ŀng",
        -8.622678772541706
      ],
      [
        "Ġcháº¿t",
        -8.622873897640154
      ],
      [
        "Ġquáº§n",
        -8.62334156985537
      ],
      [
        "ĠtÃ¹",
        -8.624474210933599
      ],
      [
        "ĠmáºŃt",
        -8.625540202685732
      ],
      [
        "ung",
        -8.629693883293116
      ],
      [
        "ĠhÆ¡i",
        -8.631347748255823
      ],
      [
        "ĠNguyÃªn",
        -8.633365302132264
      ],
      [
        "Ġthai",
        -8.635356007062931
      ],
      [
        "ĠChÃ¢u",
        -8.639462086056577
      ],
      [
        "re",
        -8.639640542346752
      ],
      [
        "ĠThá»§",
        -8.640311662869252
      ],
      [
        "ĠviÃªm",
        -8.641848969998708
      ],
      [
        "Ġthe",
        -8.642269308719902
      ],
      [
        "ĠtÆ°Æ¡i",
        -8.648712045417591
      ],
      [
        "Ġkháº¯c",
        -8.649669965213574
      ],
      [
        "06",
        -8.651541180509694
      ],
      [
        "ĠLan",
        -8.65240284919497
      ],
      [
        "ri",
        -8.653260511889583
      ],
      [
        "Y",
        -8.654853712669825
      ],
      [
        "E",
        -8.65558251830627
      ],
      [
        "Ġháº¡",
        -8.658302789838581
      ],
      [
        "Ġlá»Ļ",
        -8.659257876856442
      ],
      [
        "ĠTráº§n",
        -8.65979985139472
      ],
      [
        "ĠdÃ¡ng",
        -8.660691472371795
      ],
      [
        "ĠBÃªn",
        -8.662870278975854
      ],
      [
        "ĠChá»ī",
        -8.664423925630915
      ],
      [
        "Ġcáº¥u",
        -8.670528090453058
      ],
      [
        "ĠÄĳÃ¨n",
        -8.671839653740035
      ],
      [
        "ĠChÃŃ",
        -8.672301716451576
      ],
      [
        "ĠÄĲÃł",
        -8.673144213645408
      ],
      [
        "áº¡",
        -8.673179312840059
      ],
      [
        "ĠthÆ°á»Ľc",
        -8.674425454209516
      ],
      [
        "to",
        -8.67571379142997
      ],
      [
        "Ġlinh",
        -8.676416122985836
      ],
      [
        "Ġsá»Ľm",
        -8.677925307479809
      ],
      [
        "Ġquen",
        -8.678640004677419
      ],
      [
        "Ġnáº·ng",
        -8.679014075374953
      ],
      [
        "ĠngÄĥn",
        -8.67969889127428
      ],
      [
        "ĠPhÃ²ng",
        -8.680716851770397
      ],
      [
        "ĠtrÃ¬",
        -8.680736275220486
      ],
      [
        "ĠChi",
        -8.681531941564657
      ],
      [
        "Ġ17",
        -8.682093765482062
      ],
      [
        "ĠÄĳáº©y",
        -8.685463076174818
      ],
      [
        "ĠTrÆ°á»Ľc",
        -8.68797973453353
      ],
      [
        "ĠkÃ½",
        -8.688342048210606
      ],
      [
        "Ġbá»ģn",
        -8.689388339998985
      ],
      [
        "Ġkhá»Łi",
        -8.691626826778027
      ],
      [
        "ĠtrÃ¡ch",
        -8.692466190539097
      ],
      [
        "ĠnuÃ´i",
        -8.69333974214651
      ],
      [
        "ĠÄĳen",
        -8.69334913309925
      ],
      [
        "ĠÄĲáº·c",
        -8.697853792472507
      ],
      [
        "Ġmáº·c",
        -8.69813973288477
      ],
      [
        "Ġtáº¥n",
        -8.705398641372646
      ],
      [
        "ĠchÃ¢u",
        -8.711862448255019
      ],
      [
        "Ġxáº¿p",
        -8.713670081046903
      ],
      [
        "Ġmiá»ģn",
        -8.713842902347443
      ],
      [
        "Ġngá»Ŀ",
        -8.7147329432293
      ],
      [
        "Ġláº¡",
        -8.71568747167438
      ],
      [
        "ĠnÃ´ng",
        -8.7160272608123
      ],
      [
        "ĠLÃª",
        -8.718123688503622
      ],
      [
        "Ġluyá»ĩn",
        -8.719072928146625
      ],
      [
        "Ġquay",
        -8.719084975508718
      ],
      [
        "Ġsáºµn",
        -8.719632797195148
      ],
      [
        "ĠPhÃ¡p",
        -8.721474624460384
      ],
      [
        "Ġ2021",
        -8.72178056667039
      ],
      [
        "Ġtháº£o",
        -8.721997484766263
      ],
      [
        "Ġká»·",
        -8.72281358951339
      ],
      [
        "Ġchá»¯",
        -8.723139237927153
      ],
      [
        "ĠtÆ°á»Ľng",
        -8.724932025179854
      ],
      [
        "ĠTháº¿",
        -8.725954408211596
      ],
      [
        "ĠtÃ´",
        -8.72638793374098
      ],
      [
        "ĠUSD",
        -8.727155274342453
      ],
      [
        "Ġcháº¥p",
        -8.728139415793372
      ],
      [
        "Ġtiá»ĥu",
        -8.729448616898457
      ],
      [
        "Ġtáº·ng",
        -8.730122281116744
      ],
      [
        "Ġláº¯p",
        -8.730954511763303
      ],
      [
        "ĠÄĳá»ĳc",
        -8.73285745910843
      ],
      [
        "Ġchá»Ĺ",
        -8.733070525004143
      ],
      [
        "Ġ25",
        -8.73645658364419
      ],
      [
        "Ġkiá»ĩm",
        -8.738695639529467
      ],
      [
        "ĠViá»ĩc",
        -8.73969136783792
      ],
      [
        "ĠÄĳÄĥng",
        -8.74110131736611
      ],
      [
        "Ġ50",
        -8.741720622897187
      ],
      [
        "Ġcháº³ng",
        -8.743525623587967
      ],
      [
        "ĠW",
        -8.744161248177166
      ],
      [
        "ĠSá»Ł",
        -8.745186725880417
      ],
      [
        "ing",
        -8.75026600000417
      ],
      [
        "ĠcÆ°á»£c",
        -8.75646557895077
      ],
      [
        "Ġá»ķn",
        -8.757867050982215
      ],
      [
        "Ġcáº¯t",
        -8.760305564838193
      ],
      [
        "ĠTÃ¢n",
        -8.76129828045048
      ],
      [
        "ĠThá»©",
        -8.761455326939998
      ],
      [
        "Ġthoáº£",
        -8.761572327527983
      ],
      [
        "ĠchÃºt",
        -8.765326281661723
      ],
      [
        "Ġsung",
        -8.76726388371021
      ],
      [
        "Ġthá»ĭt",
        -8.767741594652458
      ],
      [
        "ĠNgá»įc",
        -8.769738630839733
      ],
      [
        "Ġnghi",
        -8.770924745858599
      ],
      [
        "Ġnhá»Ŀ",
        -8.772045247095317
      ],
      [
        "ĠBáº£o",
        -8.772539199108545
      ],
      [
        "ĠnÃ©t",
        -8.773875245206678
      ],
      [
        "ĠQuáº£ng",
        -8.774444882124882
      ],
      [
        "Ġkim",
        -8.77898051270972
      ],
      [
        "ĠSáº£n",
        -8.779994776311185
      ],
      [
        "Ġcha",
        -8.780246257823059
      ],
      [
        "ĠcÅ©",
        -8.781409481898367
      ],
      [
        "Ġniá»ĩm",
        -8.786636872449712
      ],
      [
        "Ġrá»Ńa",
        -8.786777506303126
      ],
      [
        "Ġláº¡c",
        -8.787368751738533
      ],
      [
        "ĠquÃ¡n",
        -8.78758764089877
      ],
      [
        "ĠBÃłi",
        -8.789575475841923
      ],
      [
        "ĠthÃºc",
        -8.78973710102532
      ],
      [
        "ĠnÃłng",
        -8.790361066225428
      ],
      [
        "Ġ21",
        -8.792666093705945
      ],
      [
        "2019",
        -8.793173466053103
      ],
      [
        "ĠThá»Ŀi",
        -8.79539721609132
      ],
      [
        "Ġháº¡ng",
        -8.797756855283282
      ],
      [
        "Ġvay",
        -8.798947941765991
      ],
      [
        "ĠCho",
        -8.79956625789828
      ],
      [
        "Ġma",
        -8.80095041185044
      ],
      [
        "ĠhÃłi",
        -8.801257207203374
      ],
      [
        "ĠniÃªn",
        -8.801432726044448
      ],
      [
        "20",
        -8.802693349956193
      ],
      [
        "Ġnáº¡n",
        -8.80323523672966
      ],
      [
        "ĠVáºŃy",
        -8.803421961049827
      ],
      [
        "ĠÄĳ",
        -8.804901214727076
      ],
      [
        "ro",
        -8.805107166815848
      ],
      [
        "Ġsáº¡n",
        -8.805267657749567
      ],
      [
        "Ġháº¡t",
        -8.805864315075306
      ],
      [
        "ĠHÃ²a",
        -8.807730380809016
      ],
      [
        "Ġtáº§m",
        -8.810016892088644
      ],
      [
        "Ġpha",
        -8.8103939121718
      ],
      [
        "Ġsuy",
        -8.811152642451562
      ],
      [
        "ĠPhÆ°Æ¡ng",
        -8.811577820663297
      ],
      [
        "Ġxu",
        -8.811665795141382
      ],
      [
        "Ġ22",
        -8.811946428637913
      ],
      [
        "ĠgÃł",
        -8.813096109819389
      ],
      [
        "01",
        -8.81332242503118
      ],
      [
        "Ġ2018",
        -8.814299626863505
      ],
      [
        "Ġgiai",
        -8.815002327491895
      ],
      [
        "ĠXem",
        -8.815988910733495
      ],
      [
        "30",
        -8.819139836767238
      ],
      [
        "NG",
        -8.822054469431954
      ],
      [
        "Ġtá»§",
        -8.8225895235113
      ],
      [
        "ĠsoÃ¡t",
        -8.823468915579578
      ],
      [
        "ĠUBND",
        -8.823628676329502
      ],
      [
        "Æ°Æ¡ng",
        -8.825660002990645
      ],
      [
        "Ġquáº£ng",
        -8.827918194683816
      ],
      [
        "Æ¡n",
        -8.828541066589409
      ],
      [
        "Ġgá»ĳc",
        -8.831503219189786
      ],
      [
        "ĠmÃ¡t",
        -8.831509941680483
      ],
      [
        "Ġáº©m",
        -8.831607845108195
      ],
      [
        "ĠtrÃºc",
        -8.831953069772002
      ],
      [
        "ĠÄĳÃ³n",
        -8.833092854229191
      ],
      [
        "ĠcÃł",
        -8.834224195986549
      ],
      [
        "Ġngá»¯",
        -8.834800945857612
      ],
      [
        "ĠcÃ¡nh",
        -8.835167087541508
      ],
      [
        "ĠDá»±",
        -8.835284174125459
      ],
      [
        "ĠÄĲá»ĳi",
        -8.836433823746763
      ],
      [
        "ĠLa",
        -8.837753376269996
      ],
      [
        "ĠsÃłn",
        -8.838344885823581
      ],
      [
        "Ġvá»Ŀi",
        -8.838437353667082
      ],
      [
        "ĠThiáº¿t",
        -8.844532208636108
      ],
      [
        "ĠMa",
        -8.844800843821467
      ],
      [
        "ĠbÃŃ",
        -8.844875428954724
      ],
      [
        "Ġlá»Ĺi",
        -8.84492724914118
      ],
      [
        "or",
        -8.84505175403043
      ],
      [
        "88",
        -8.845177707668036
      ],
      [
        "ĠmÆ¡",
        -8.845980282568014
      ],
      [
        "ĠXuÃ¢n",
        -8.846913296885948
      ],
      [
        "Ġbáº§u",
        -8.847994948416654
      ],
      [
        "ĠKá»³",
        -8.849179508824943
      ],
      [
        "2018",
        -8.851239850925635
      ],
      [
        "ĠPhÃ³",
        -8.852522720202932
      ],
      [
        "ĠThiÃªn",
        -8.853640502649485
      ],
      [
        "ĠphÃª",
        -8.854203422923707
      ],
      [
        "Ġbá»©c",
        -8.85652386507013
      ],
      [
        "Ġngá»ĵi",
        -8.858303810885724
      ],
      [
        "ĠNÄĥm",
        -8.860289145415333
      ],
      [
        "ĠÄĳÃŃch",
        -8.861175801471541
      ],
      [
        "ĠNga",
        -8.864298469641861
      ],
      [
        "ed",
        -8.864332616555682
      ],
      [
        "ĠgiÃ¡m",
        -8.8644357092638
      ],
      [
        "ĠSá»ĳ",
        -8.864670147277737
      ],
      [
        "ĠkÃ¨m",
        -8.865776497716706
      ],
      [
        "Ġgháº¿",
        -8.866134524239738
      ],
      [
        "ĠGia",
        -8.86685266718105
      ],
      [
        "Ġhá»ĵng",
        -8.867803089423223
      ],
      [
        "ĠtÃłu",
        -8.869991156802465
      ],
      [
        "ĠngÅ©",
        -8.871607154561442
      ],
      [
        "ĠlÆ°á»£t",
        -8.873883499615443
      ],
      [
        "Ġá»ŀ",
        -8.874518921895381
      ],
      [
        "ĠÄĳÃ¡o",
        -8.878624075415749
      ],
      [
        "Ġmá»ĳi",
        -8.879552950072544
      ],
      [
        "ĠThe",
        -8.880589239519823
      ],
      [
        "âĢĿ,",
        -8.880594385178256
      ],
      [
        "ĠDu",
        -8.88068299220753
      ],
      [
        "ĠKim",
        -8.880763126249947
      ],
      [
        "la",
        -8.88141111011404
      ],
      [
        "ĠKinh",
        -8.882611915476371
      ],
      [
        "Ġtrá»ĵng",
        -8.88266794093565
      ],
      [
        "ĠthÄĥm",
        -8.883609315296715
      ],
      [
        "Ġ2020",
        -8.885561940432748
      ],
      [
        "Ġdá»¯",
        -8.887421568826769
      ],
      [
        "el",
        -8.888021213233147
      ],
      [
        "Ġtrao",
        -8.888398545924261
      ],
      [
        "te",
        -8.88854468360928
      ],
      [
        "Ġmáº¡ch",
        -8.890334471700895
      ],
      [
        "ĠquÃł",
        -8.890535067457343
      ],
      [
        "Ġtim",
        -8.89190503766784
      ],
      [
        "Ġ2019",
        -8.89350823151833
      ],
      [
        "ĠGiang",
        -8.894088106643862
      ],
      [
        "Ġsáº¯p",
        -8.901212028591582
      ],
      [
        "co",
        -8.902385573751449
      ],
      [
        "Ġbáº¡c",
        -8.90348506551526
      ],
      [
        "2017",
        -8.904453715995375
      ],
      [
        "Ġsai",
        -8.905593036557718
      ],
      [
        "Ġdáº¡y",
        -8.906089513999435
      ],
      [
        "ĠhÃ¡t",
        -8.907322455920879
      ],
      [
        "Ġtháº»",
        -8.909174474195664
      ],
      [
        "*",
        -8.91308881231384
      ],
      [
        "Ġthuáº¿",
        -8.914017129379825
      ],
      [
        "ĠNha",
        -8.91475751979733
      ],
      [
        "ĠphÃºc",
        -8.916148211567714
      ],
      [
        "Ġkhá»ĳi",
        -8.916466275631025
      ],
      [
        "ĠSá»±",
        -8.916619083718224
      ],
      [
        "Ġ2017",
        -8.91662620951501
      ],
      [
        "ĠBÆ°á»Ľc",
        -8.919732405506771
      ],
      [
        "Ġlá»įc",
        -8.920355551525425
      ],
      [
        "Ġcuá»ĳn",
        -8.92303615347655
      ],
      [
        "Ġtháº³ng",
        -8.92388091525645
      ],
      [
        "Ġsuá»ĳt",
        -8.924824767227971
      ],
      [
        "ĠÃĤu",
        -8.925084620088315
      ],
      [
        "Ġngáº¯n",
        -8.925285549416412
      ],
      [
        "Ġch",
        -8.925717547998799
      ],
      [
        "Ġcáº§m",
        -8.927160354777829
      ],
      [
        "ĠvÃ©",
        -8.928097115332534
      ],
      [
        "Ġtáº¯c",
        -8.928883983721446
      ],
      [
        "ĠgÃ³i",
        -8.930740343218739
      ],
      [
        "ĠTÃłi",
        -8.931473364274362
      ],
      [
        "Ġtuy",
        -8.931758252663492
      ],
      [
        "ĠbÃło",
        -8.932419021233722
      ],
      [
        "Ġchuyáº¿n",
        -8.934767123932165
      ],
      [
        "Ġcam",
        -8.934912972207846
      ],
      [
        "Ġnáº¯ng",
        -8.935890008905151
      ],
      [
        "Ġcá»Ń",
        -8.935907418727018
      ],
      [
        "Ġ23",
        -8.93795381208791
      ],
      [
        "Ġdáº§n",
        -8.938175160341379
      ],
      [
        "ĠnghiÃªm",
        -8.941031506890138
      ],
      [
        "ĠmÅ©i",
        -8.941405040866156
      ],
      [
        "ĠpháºŃn",
        -8.943344402153414
      ],
      [
        "HCM",
        -8.945463504444792
      ],
      [
        "ĠCon",
        -8.945641302285827
      ],
      [
        "ĠkÃ©m",
        -8.946098760458758
      ],
      [
        "Ġweb",
        -8.946326388365208
      ],
      [
        "Ġthá»¥",
        -8.948428406677571
      ],
      [
        "da",
        -8.94988287393219
      ],
      [
        "ĠTin",
        -8.950958431771582
      ],
      [
        "ĠdÃµi",
        -8.9516999770727
      ],
      [
        "ĠNhÆ°",
        -8.952439147977282
      ],
      [
        "ĠLÃł",
        -8.953002431938247
      ],
      [
        "ĠLuáºŃt",
        -8.953668863008035
      ],
      [
        "Ġhá»įa",
        -8.954743671089705
      ],
      [
        "ĠbÃły",
        -8.95602560765206
      ],
      [
        "ĠthÃ´i",
        -8.956806610113036
      ],
      [
        "Ġláº½",
        -8.957235077120792
      ],
      [
        "ĠQuÃ½",
        -8.957583787638356
      ],
      [
        "]",
        -8.959737011629521
      ],
      [
        "li",
        -8.96160777506139
      ],
      [
        "ĠdÃły",
        -8.96194348129092
      ],
      [
        "ĠNhÃ¢n",
        -8.963642972928504
      ],
      [
        "Ġáº¥m",
        -8.964024514695458
      ],
      [
        "ĠmÃ¹i",
        -8.96799200582845
      ],
      [
        "Ġchá»Ŀ",
        -8.97207711416811
      ],
      [
        "ĠPhÃ¡t",
        -8.972590824497127
      ],
      [
        "ĠNinh",
        -8.975200049613084
      ],
      [
        "2020",
        -8.979917612288482
      ],
      [
        "ĠChÆ°Æ¡ng",
        -8.981190668703041
      ],
      [
        "ĠÄĲÆ°á»£c",
        -8.981705396487746
      ],
      [
        "Ġth",
        -8.983426496854362
      ],
      [
        "ĠTH",
        -8.987055892822585
      ],
      [
        "Ġchiáº¿u",
        -8.98715524297518
      ],
      [
        "ĠBá»ĩnh",
        -8.987338089502435
      ],
      [
        "ĠgiÃ³",
        -8.987521626089203
      ],
      [
        "ĠyÃªn",
        -8.98793557755773
      ],
      [
        "Ġtruy",
        -8.990364488094631
      ],
      [
        "ĠdÆ°Æ¡ng",
        -8.990575079790503
      ],
      [
        "Ġcoi",
        -8.990723425774947
      ],
      [
        "ĠBÃł",
        -8.992442518777148
      ],
      [
        "Ġhuyáº¿t",
        -8.993801745728176
      ],
      [
        "lo",
        -8.99581980488931
      ],
      [
        "Ġonline",
        -8.996236323167585
      ],
      [
        "ĠÄĲáº£ng",
        -8.996444792293008
      ],
      [
        "ĠlÃłn",
        -8.998063728455737
      ],
      [
        "Ġnhá»±a",
        -9.002123660932439
      ],
      [
        "ĠThu",
        -9.002597790121253
      ],
      [
        "ĠcÃ¡n",
        -9.003242362726613
      ],
      [
        "Ġliá»ģn",
        -9.003642954687402
      ],
      [
        "ĠtrÃ¹ng",
        -9.00523925993589
      ],
      [
        "Ġmáº½",
        -9.005859090076136
      ],
      [
        "ol",
        -9.006229141672103
      ],
      [
        "Ġgá»įn",
        -9.00708867793776
      ],
      [
        "ma",
        -9.009702352458136
      ],
      [
        "ĠDi",
        -9.01056618171762
      ],
      [
        "Ġxung",
        -9.01276967969424
      ],
      [
        "Ġbá»Ļt",
        -9.014851858219936
      ],
      [
        ">",
        -9.014984966300531
      ],
      [
        "âĢĻ",
        -9.015371283845514
      ],
      [
        "Ġlai",
        -9.015825213188462
      ],
      [
        "\".",
        -9.01937426490094
      ],
      [
        "ĠHai",
        -9.019592502526669
      ],
      [
        "Ġcá»©ng",
        -9.020650792217385
      ],
      [
        "ĠÄĳoÃ¡n",
        -9.025958888350516
      ],
      [
        "Æ¡",
        -9.027055551518105
      ],
      [
        "Ġhá»įp",
        -9.031576166824962
      ],
      [
        "Ġtáº¥m",
        -9.03208529857743
      ],
      [
        "ĠGiÃ¡o",
        -9.032303095711246
      ],
      [
        "Ġmá»¥n",
        -9.032470377810046
      ],
      [
        "Ġtháº¯",
        -9.033773092564068
      ],
      [
        "05",
        -9.034127535373743
      ],
      [
        "Ġnáº¯m",
        -9.034820366544263
      ],
      [
        "ĠtÃ¡i",
        -9.03492528716188
      ],
      [
        "ĠtÃºi",
        -9.035860329084064
      ],
      [
        "ĠtÆ°á»Ŀng",
        -9.036302867746862
      ],
      [
        "tr",
        -9.038358474897503
      ],
      [
        "ĠhÃ´n",
        -9.038404893848494
      ],
      [
        "Ġvá»¯ng",
        -9.038541653911876
      ],
      [
        "Ġgáº¯n",
        -9.038785206584116
      ],
      [
        "ĠÄĳáº³ng",
        -9.040684251025407
      ],
      [
        "ĠHá»ĵng",
        -9.042390209374972
      ],
      [
        "Ġkhá»ķ",
        -9.042491896270263
      ],
      [
        "Ġwebsite",
        -9.043469783944364
      ],
      [
        "ĠIn",
        -9.043560344418944
      ],
      [
        "Ġnháº¥n",
        -9.043912617765214
      ],
      [
        "ĠNáºµng",
        -9.04409660780412
      ],
      [
        "ĠLinh",
        -9.045767906164263
      ],
      [
        "Ġtr",
        -9.046235542034998
      ],
      [
        "ĠNhiá»ģu",
        -9.046262082503802
      ],
      [
        "Ġháº§u",
        -9.046508622956043
      ],
      [
        "Ġchá»¥p",
        -9.046682362805436
      ],
      [
        "do",
        -9.046682468163525
      ],
      [
        "hi",
        -9.046725940068493
      ],
      [
        "Ġsu",
        -9.04840351876809
      ],
      [
        "z",
        -9.048606258458856
      ],
      [
        "Ġly",
        -9.049373909917408
      ],
      [
        "Ġphiáº¿u",
        -9.04995478572206
      ],
      [
        "ĠÄĲÃ³",
        -9.050659601496552
      ],
      [
        "ĠÂ»",
        -9.051632106388608
      ],
      [
        "Ġdá»±a",
        -9.05312730930784
      ],
      [
        ",âĢ¦",
        -9.053674189590064
      ],
      [
        "ĠTrÃªn",
        -9.054311855825846
      ],
      [
        "ĠchÃ¡y",
        -9.055538226458046
      ],
      [
        "ĠsÃ³ng",
        -9.055911655123026
      ],
      [
        "ĠsÃ´ng",
        -9.056209797222367
      ],
      [
        "ĠtrÆ°ng",
        -9.05634691066908
      ],
      [
        "ĠmÃª",
        -9.057788892534823
      ],
      [
        "ĠLÃ½",
        -9.058192706633353
      ],
      [
        "Ġ2016",
        -9.059823404303716
      ],
      [
        "ĠPhong",
        -9.061980521554934
      ],
      [
        "03",
        -9.063294623761076
      ],
      [
        "ĠCÃ´",
        -9.063975442106122
      ],
      [
        "Ġsá»£",
        -9.064398826353637
      ],
      [
        "09",
        -9.065927165022147
      ],
      [
        "ĠcÆ°á»Ŀi",
        -9.066254631227531
      ],
      [
        "Ġháº¡nh",
        -9.06781064565674
      ],
      [
        "Ġá»§y",
        -9.068151405464112
      ],
      [
        "ĠtháºŃm",
        -9.068231677160972
      ],
      [
        "Ġkhuyáº¿n",
        -9.068259733678827
      ],
      [
        "ĠmÆ°a",
        -9.069085831938072
      ],
      [
        "ĠQuáºŃn",
        -9.069093183080453
      ],
      [
        "Ġmiá»ĩng",
        -9.069595060662236
      ],
      [
        "ĠMi",
        -9.070597884488654
      ],
      [
        "Ġco",
        -9.071122216402536
      ],
      [
        "Ġbuá»Ļc",
        -9.072345962139154
      ],
      [
        "ĠVá»ģ",
        -9.073692318179416
      ],
      [
        "ĠGiÃ¡m",
        -9.07378292050771
      ],
      [
        "ĠCÃ¹ng",
        -9.075213318824645
      ],
      [
        "ĠÄĲiá»ĩn",
        -9.076396133694182
      ],
      [
        "ĠVi",
        -9.077411120037352
      ],
      [
        "ĠcáºŃn",
        -9.077641356420946
      ],
      [
        "Ġláº¯ng",
        -9.07797789513648
      ],
      [
        "Ġxinh",
        -9.078297338258258
      ],
      [
        "ĠCao",
        -9.07966422832821
      ],
      [
        "ĠCÆ¡",
        -9.080851460856104
      ],
      [
        "us",
        -9.083509215151226
      ],
      [
        "ĠKhu",
        -9.085496413265526
      ],
      [
        "ĠthÆ¡m",
        -9.086255569712122
      ],
      [
        "_",
        -9.0876391064199
      ],
      [
        "vi",
        -9.08808078960056
      ],
      [
        "Ġloáº¡t",
        -9.090198052340185
      ],
      [
        "ĠtuyÃªn",
        -9.09121525709989
      ],
      [
        "ĠmÃ£i",
        -9.092782650324454
      ],
      [
        "Ġháº£o",
        -9.093419724334682
      ],
      [
        "ĠQuang",
        -9.095206392275363
      ],
      [
        "ĠTÆ°",
        -9.09538915022848
      ],
      [
        "Ġnáº¥u",
        -9.096063966933253
      ],
      [
        "08",
        -9.096606771007002
      ],
      [
        "ĠgÃ³c",
        -9.09721235496167
      ],
      [
        "Ãª",
        -9.09872465222221
      ],
      [
        "ĠlÃ´ng",
        -9.09939351840329
      ],
      [
        "ĠkÃ¬",
        -9.099715760195654
      ],
      [
        "Ġof",
        -9.099925314242382
      ],
      [
        "ĠVÅ©",
        -9.103147312564111
      ],
      [
        "07",
        -9.105024826459422
      ],
      [
        "Ġrau",
        -9.106127186659124
      ],
      [
        "Ġá»ĳng",
        -9.109700339512708
      ],
      [
        "Ġvideo",
        -9.109966284013412
      ],
      [
        "ĠTá»ķ",
        -9.111855538546855
      ],
      [
        "ĠlÃłnh",
        -9.112032904116868
      ],
      [
        "Ġthá»«a",
        -9.112055847515098
      ],
      [
        "Ġchiáº¿m",
        -9.112945851494333
      ],
      [
        "15",
        -9.113274346117564
      ],
      [
        "ĠÄĲáº¿n",
        -9.11359065529524
      ],
      [
        "02",
        -9.113812037979212
      ],
      [
        "04",
        -9.115230419727332
      ],
      [
        "ĠBÃ¡o",
        -9.115241191053256
      ],
      [
        "ĠrÆ°á»£u",
        -9.1153383559753
      ],
      [
        "Ġtá»Ļi",
        -9.116201260906989
      ],
      [
        "Ġhuy",
        -9.11628716355205
      ],
      [
        "ĠRa",
        -9.116921786846133
      ],
      [
        "Ġdinh",
        -9.119327576882952
      ],
      [
        "Ġtá»Ļc",
        -9.120266596355185
      ],
      [
        "ĠTh",
        -9.12050454985733
      ],
      [
        "ĠcÆ°á»Ľi",
        -9.12120000849998
      ],
      [
        "ĠQ",
        -9.121218256388763
      ],
      [
        "ĠChÃºa",
        -9.121584892027462
      ],
      [
        "ĠNÃ³",
        -9.12167458694342
      ],
      [
        "ĠsÆ¡n",
        -9.122068136993374
      ],
      [
        "ĠrÃłng",
        -9.122997682677385
      ],
      [
        "Ġ01",
        -9.124166143646876
      ],
      [
        "Ġtu",
        -9.124231355526584
      ],
      [
        "ĠlÆ°á»£c",
        -9.12901918668056
      ],
      [
        "Ġlan",
        -9.129025711058254
      ],
      [
        "ĠTáº¿t",
        -9.129561402919713
      ],
      [
        "ĠkÃª",
        -9.12972917239668
      ],
      [
        "ĠCa",
        -9.129939258637302
      ],
      [
        "Ġniá»ģm",
        -9.131552477193628
      ],
      [
        "ĠrÃºt",
        -9.132119863275092
      ],
      [
        "ar",
        -9.132842252678005
      ],
      [
        "ĠÄĲá»ĭa",
        -9.133857623650268
      ],
      [
        "ĠPháº¡m",
        -9.133971288560453
      ],
      [
        "ĠHá»įc",
        -9.134397574504714
      ],
      [
        "Ġkem",
        -9.134922182240018
      ],
      [
        "ĠvÅ©",
        -9.135331164085336
      ],
      [
        "ĠTáºŃp",
        -9.135817504622686
      ],
      [
        "ĠgiÃłu",
        -9.13582727647545
      ],
      [
        "Ġkhuáº©n",
        -9.136135605590905
      ],
      [
        "et",
        -9.136945534430316
      ],
      [
        "ĠLÃłm",
        -9.136963543650078
      ],
      [
        "ĠThÆ°Æ¡ng",
        -9.138526058626685
      ],
      [
        "ĠgiÃłnh",
        -9.140545938530725
      ],
      [
        "Ġkháº³ng",
        -9.14200037620633
      ],
      [
        "Ġtá»ī",
        -9.144223166365444
      ],
      [
        "Ġsáº¯t",
        -9.144378206107625
      ],
      [
        "Ġhá»Ļp",
        -9.14828981433942
      ],
      [
        "ĠThá»±c",
        -9.14836532011092
      ],
      [
        "Ġmáº¥y",
        -9.149379167734516
      ],
      [
        "Ġlá»Ńa",
        -9.150866336038172
      ],
      [
        "ĠbiÃªn",
        -9.152113210379497
      ],
      [
        "Ġváº¿t",
        -9.152842153770388
      ],
      [
        "Ġáº¢nh",
        -9.153205142739356
      ],
      [
        "2016",
        -9.154033394492064
      ],
      [
        "ĠkÃ¨o",
        -9.154406931717311
      ],
      [
        "Ġ26",
        -9.155207592052449
      ],
      [
        "ĠtÃ´n",
        -9.15642977442518
      ],
      [
        "Ġháº¯n",
        -9.157016735317637
      ],
      [
        "Ġdá»ĭp",
        -9.157484602099698
      ],
      [
        "ĠMai",
        -9.157995611633536
      ],
      [
        "ĠRe",
        -9.159376994999542
      ],
      [
        "Ġdá»¥",
        -9.160238860949876
      ],
      [
        "Ġnháº¯c",
        -9.160284513730328
      ],
      [
        "ĠLi",
        -9.161601654457945
      ],
      [
        "Ġbá»ģ",
        -9.161953322969016
      ],
      [
        "ĠthÆ¡",
        -9.162034726475737
      ],
      [
        "ĠnÃºi",
        -9.163169411369156
      ],
      [
        "ĠlÃ¡i",
        -9.16329486352601
      ],
      [
        "ĠÄĲáº§u",
        -9.164361224726363
      ],
      [
        "Ġmá»Ļ",
        -9.164641586272632
      ],
      [
        "ĠÄĳá»ķ",
        -9.16541474532406
      ],
      [
        "Ġ28",
        -9.165605418051848
      ],
      [
        "ĠÄĲá»Ļ",
        -9.1676316796696
      ],
      [
        "Ġtáº¯m",
        -9.168684260449885
      ],
      [
        "me",
        -9.1695498596823
      ],
      [
        "Ġtáº¡p",
        -9.17119560301848
      ],
      [
        "ĠCÄĥn",
        -9.171773900462409
      ],
      [
        "ĠsÃłng",
        -9.17227998935908
      ],
      [
        "ĠbÃ¨",
        -9.173054038188878
      ],
      [
        "ĠSa",
        -9.175381704307714
      ],
      [
        "Ġkho",
        -9.175577949491265
      ],
      [
        "ĠThÃ¡ng",
        -9.176872353084914
      ],
      [
        "Ġkáº»",
        -9.17816492720292
      ],
      [
        "Ãł",
        -9.178234116092286
      ],
      [
        "Ġ40",
        -9.178416410275004
      ],
      [
        "ĠiPhone",
        -9.178422422881216
      ],
      [
        "Ġnh",
        -9.178844506734858
      ],
      [
        "Ġkhung",
        -9.179522173644274
      ],
      [
        "ly",
        -9.179747328546249
      ],
      [
        "ĠhÃ¨",
        -9.18174598119599
      ],
      [
        "Ġ27",
        -9.183070928464025
      ],
      [
        "ĠDá»ĭch",
        -9.183320101783703
      ],
      [
        "ĠQuy",
        -9.184258015823389
      ],
      [
        "Ġtrá»©ng",
        -9.188694132851912
      ],
      [
        "ĠtÃ²a",
        -9.188983976965966
      ],
      [
        "Ġphi",
        -9.189415782181651
      ],
      [
        "Ġtá»ĵn",
        -9.189785093856818
      ],
      [
        "Ġtá»Ŀ",
        -9.189964450216996
      ],
      [
        "ĠlÆ°Æ¡ng",
        -9.191160151781668
      ],
      [
        "ĠKáº¿t",
        -9.19156781473573
      ],
      [
        "ĠxÆ°Æ¡ng",
        -9.191809185333597
      ],
      [
        "ĠPháº§n",
        -9.194062034578783
      ],
      [
        "áº£",
        -9.19576702395138
      ],
      [
        "Ġbiá»ĩn",
        -9.19638306665956
      ],
      [
        "ne",
        -9.19646460199929
      ],
      [
        "Ġtháº§y",
        -9.196885263676371
      ],
      [
        "ĠthÃ¡c",
        -9.198492991843567
      ],
      [
        "Ġkhiá»ĥn",
        -9.198706438450658
      ],
      [
        "ĠCo",
        -9.198976864216569
      ],
      [
        "ĠÆ°á»Ľc",
        -9.201908437272818
      ],
      [
        "Ġkia",
        -9.204648003154094
      ],
      [
        "18",
        -9.205318384230443
      ],
      [
        "Ġtrá»¥",
        -9.20567645779273
      ],
      [
        "ĠLÃ¢m",
        -9.208538151591595
      ],
      [
        "ĠPháºŃt",
        -9.209018643990628
      ],
      [
        "#",
        -9.209609199971576
      ],
      [
        "Ġxáº¥u",
        -9.209730850451498
      ],
      [
        "Ġxong",
        -9.209765923607428
      ],
      [
        "Ġkháº¯p",
        -9.21085835360207
      ],
      [
        "Ġtháº£i",
        -9.211994513828012
      ],
      [
        "ĠDe",
        -9.212270910789544
      ],
      [
        "ĠtrÃł",
        -9.212604095714427
      ],
      [
        "ĠkhÃ¡ng",
        -9.21277515298458
      ],
      [
        "ĠMá»Ĺi",
        -9.21420702966198
      ],
      [
        "Ġla",
        -9.216292252952105
      ],
      [
        "de",
        -9.216522472900202
      ],
      [
        "ĠHá»į",
        -9.22006637943864
      ],
      [
        "Ġngá»įt",
        -9.220690362879074
      ],
      [
        "ĠcáºŃu",
        -9.222189767496744
      ],
      [
        "ĠKhoa",
        -9.222273401711194
      ],
      [
        "Ġchá»©",
        -9.22341834555294
      ],
      [
        "Ġxá»©",
        -9.224296411967766
      ],
      [
        "ĠlÃ´",
        -9.22595522942552
      ],
      [
        "ĠCÃ²n",
        -9.226048987568022
      ],
      [
        "ter",
        -9.227574834056812
      ],
      [
        "ĠkhÃºc",
        -9.229540832072002
      ],
      [
        "ĠthoÃ¡t",
        -9.22992561634794
      ],
      [
        "ĠÄĳiá»ĥn",
        -9.229930317178091
      ],
      [
        "ĠnhiÃªu",
        -9.230826414695102
      ],
      [
        "ĠCha",
        -9.231293230672794
      ],
      [
        "ĠEm",
        -9.233319192910988
      ],
      [
        "ĠtháºŃn",
        -9.237149851723093
      ],
      [
        "ĠÄĳá»Ļt",
        -9.23752338151426
      ],
      [
        "ĠthÃŃ",
        -9.238051690552645
      ],
      [
        "50",
        -9.23946080003856
      ],
      [
        "Ġsá»©",
        -9.240618761827388
      ],
      [
        "ki",
        -9.24360975398711
      ],
      [
        "ĠkhuÃ´n",
        -9.249254290364778
      ],
      [
        "ĠHÃ¬nh",
        -9.249342898963926
      ],
      [
        "ĠSÃłi",
        -9.249902376680838
      ],
      [
        "ĠNa",
        -9.250392895870515
      ],
      [
        "ĠBá»Łi",
        -9.25084533272071
      ],
      [
        "Ġmáº¯n",
        -9.25125501109455
      ],
      [
        "Ġká»ĭp",
        -9.251626017130482
      ],
      [
        "di",
        -9.253904761769984
      ],
      [
        "ĠGiáº£i",
        -9.25556960346674
      ],
      [
        "Ġcáº·p",
        -9.25607430098154
      ],
      [
        "ĠHÃłng",
        -9.257354485764576
      ],
      [
        "Ġmá»Ŀi",
        -9.257443315350294
      ],
      [
        "mm",
        -9.258062605179742
      ],
      [
        "Ġthua",
        -9.25935336318866
      ],
      [
        "ĠSo",
        -9.260158546504362
      ],
      [
        "ĠphÃ³ng",
        -9.260698765361594
      ],
      [
        "ĠNghá»ĭ",
        -9.262066915653506
      ],
      [
        "Ġtá»ı",
        -9.262356499147469
      ],
      [
        "ĠKhÃ¡ch",
        -9.262945219349982
      ],
      [
        "ĠMÃ£",
        -9.264285633926864
      ],
      [
        "Ġninh",
        -9.26694151911244
      ],
      [
        "25",
        -9.268079781334674
      ],
      [
        "ĠbáºŃc",
        -9.270588931439306
      ],
      [
        "ĠlÃłng",
        -9.271016022527371
      ],
      [
        "Ġ29",
        -9.27151967893514
      ],
      [
        "ĠrÆ¡i",
        -9.271607384937637
      ],
      [
        "Ġho",
        -9.27166690161212
      ],
      [
        "Ġá»¦y",
        -9.273329034838207
      ],
      [
        "Ġchu",
        -9.274127621634022
      ],
      [
        "Ġbá»¥ng",
        -9.274972031639768
      ],
      [
        "ke",
        -9.275099141017206
      ],
      [
        "ĠHLV",
        -9.275837061615352
      ],
      [
        "Ġgáº¥p",
        -9.275989941809325
      ],
      [
        "Ġ2015",
        -9.276790356492072
      ],
      [
        "ĠTáº¥t",
        -9.27856626144699
      ],
      [
        "Ġháº³n",
        -9.279141587552642
      ],
      [
        "ĠvÆ°á»Ŀn",
        -9.27946902464068
      ],
      [
        "es",
        -9.27964982790082
      ],
      [
        "ĠlÆ°ng",
        -9.280140131203966
      ],
      [
        "ĠhoÃ¡",
        -9.28019435172867
      ],
      [
        "Ġcamera",
        -9.28119526276294
      ],
      [
        "Ġgiáº£ng",
        -9.281714159978124
      ],
      [
        "Ġsong",
        -9.281924370659532
      ],
      [
        "Ġthuyáº¿t",
        -9.282554580677797
      ],
      [
        "Ġbá»¯",
        -9.284010979238673
      ],
      [
        "Ġ[",
        -9.28501363198618
      ],
      [
        "ĠLÆ°u",
        -9.285087489301413
      ],
      [
        "ĠcÄĥng",
        -9.286415237787216
      ],
      [
        "Ġcá»¥c",
        -9.288328082317834
      ],
      [
        "Ġbáº¡i",
        -9.28836362669952
      ],
      [
        "ĠÄĲoÃłn",
        -9.28868484856013
      ],
      [
        "ÃŃ",
        -9.288797578066728
      ],
      [
        "Ġváº£i",
        -9.289072899468056
      ],
      [
        "Ġvá»ı",
        -9.289139491140332
      ],
      [
        "ĠcÃłi",
        -9.292566592537666
      ],
      [
        "23",
        -9.294918368891734
      ],
      [
        "Ġliá»ĩt",
        -9.295028989899595
      ],
      [
        "Ġtrá»«",
        -9.296206732033331
      ],
      [
        "ĠhÃłm",
        -9.296426295679863
      ],
      [
        "Ġhá»ģ",
        -9.29713986130792
      ],
      [
        "ĠCh",
        -9.297947132722015
      ],
      [
        "Ġcan",
        -9.298709988150636
      ],
      [
        "24",
        -9.301054070910396
      ],
      [
        "ĠchÃłng",
        -9.301758141446166
      ],
      [
        "Ġrá»«ng",
        -9.302894575487915
      ],
      [
        "ĠGÃ²n",
        -9.304298129956685
      ],
      [
        "am",
        -9.306032507247378
      ],
      [
        "á»£",
        -9.306985086552729
      ],
      [
        "Ġngáº¡i",
        -9.308209643100074
      ],
      [
        "á»ĳc",
        -9.309949986620898
      ],
      [
        "Th",
        -9.310394962694676
      ],
      [
        "16",
        -9.311859724553951
      ],
      [
        "Ġláº«n",
        -9.311900724179544
      ],
      [
        "ĠtrÄĥm",
        -9.314368531048869
      ],
      [
        "Ġ60",
        -9.314565344900682
      ],
      [
        "ĠphÆ°á»Ŀng",
        -9.314734808570275
      ],
      [
        "Ġpháº¡t",
        -9.31571258116928
      ],
      [
        "Ġcháº£y",
        -9.316374326370807
      ],
      [
        "Ġtáº¡m",
        -9.317814476688586
      ],
      [
        "ĠhoÃłng",
        -9.318822047494423
      ],
      [
        "ĠÄĳÃ¡m",
        -9.319260513192706
      ],
      [
        "ĠngÃ´n",
        -9.321759111065925
      ],
      [
        "ĠÄĳo",
        -9.322881914836143
      ],
      [
        "Ġgáº¯ng",
        -9.324369681685178
      ],
      [
        "Ġcháº·n",
        -9.326827659838012
      ],
      [
        "ur",
        -9.3277680317938
      ],
      [
        "Ġmá»¡",
        -9.329453996783148
      ],
      [
        "Ġsá»ķ",
        -9.329622004300523
      ],
      [
        "TT",
        -9.329822961886984
      ],
      [
        "Ġmá»ĩnh",
        -9.329868429541618
      ],
      [
        "Ġmá»«ng",
        -9.329933600465813
      ],
      [
        "Ġnha",
        -9.330298933377824
      ],
      [
        "ĠngÆ°á»£c",
        -9.330457793636445
      ],
      [
        "ĠHáº¡",
        -9.331052939338626
      ],
      [
        "ĠÄĳá»£i",
        -9.335431795134731
      ],
      [
        "ĠJ",
        -9.335436539608985
      ],
      [
        "Ġtá»¥",
        -9.335823451682153
      ],
      [
        "ĠCáº§n",
        -9.336667486386704
      ],
      [
        "Ã¢y",
        -9.338228654706192
      ],
      [
        "ĠgiÃły",
        -9.339526806999755
      ],
      [
        "ĠÄĲÆ°á»Ŀng",
        -9.339547352841551
      ],
      [
        "Ġlá»Ĺ",
        -9.340155142496576
      ],
      [
        "Ã´",
        -9.341412327595153
      ],
      [
        "Ġ02",
        -9.342940638960416
      ],
      [
        "ĠloÃłi",
        -9.343438315116646
      ],
      [
        "2021",
        -9.34631231411527
      ],
      [
        "VN",
        -9.347697861146914
      ],
      [
        "ĠÄĳÆ°Æ¡ng",
        -9.347707629221013
      ],
      [
        "ĠHÆ°Æ¡ng",
        -9.348516721975688
      ],
      [
        "Ã¢n",
        -9.34890828393535
      ],
      [
        "Ġdá»«ng",
        -9.349005319068402
      ],
      [
        "ĠXe",
        -9.349086950031085
      ],
      [
        "14",
        -9.349929162935036
      ],
      [
        "ĠphÃº",
        -9.351485991380525
      ],
      [
        "ĠlÆ°á»Ľi",
        -9.351782147226965
      ],
      [
        "ĠÄĳá»¡",
        -9.353385247796458
      ],
      [
        "Ġgan",
        -9.353800505235949
      ],
      [
        "ĠYÃªn",
        -9.354443462707083
      ],
      [
        "Ġsex",
        -9.35453618797477
      ],
      [
        "ĠHá»ĩ",
        -9.355622851399051
      ],
      [
        "ĠHÆ°ng",
        -9.35698091776137
      ],
      [
        "Ġchá»£",
        -9.35805427055819
      ],
      [
        "Ġche",
        -9.359310809021164
      ],
      [
        "ĠMáº·t",
        -9.36001584053487
      ],
      [
        "ĠGame",
        -9.360856996297812
      ],
      [
        "ĠSá»Ń",
        -9.36177177918538
      ],
      [
        "ĠchÃ¡u",
        -9.363212418047222
      ],
      [
        "ĠDÃ¹",
        -9.36491666662015
      ],
      [
        "Ġthang",
        -9.365701330332946
      ],
      [
        "Ġthá»ıa",
        -9.366181213180685
      ],
      [
        "ĠTa",
        -9.366820429893789
      ],
      [
        "ĠbÄĥng",
        -9.369456005703949
      ],
      [
        "ĠÄĳáº¥y",
        -9.36964274283632
      ],
      [
        "ĠÄĳá»«ng",
        -9.369824849457643
      ],
      [
        "Ġlá»¥c",
        -9.370399815721669
      ],
      [
        "ĠchÃło",
        -9.371398795876432
      ],
      [
        "Ġ200",
        -9.372504006236802
      ],
      [
        "Ġtáº¯t",
        -9.37288975188998
      ],
      [
        "Ġthá»±",
        -9.37424326343619
      ],
      [
        "ĠCH",
        -9.3747087201305
      ],
      [
        "ĠvÃŃ",
        -9.374710620411616
      ],
      [
        "ĠthÃ´n",
        -9.375135021383242
      ],
      [
        "Ġtáº£",
        -9.37561166760469
      ],
      [
        "2015",
        -9.378015404440765
      ],
      [
        "ĠTiÃªn",
        -9.382212887102297
      ],
      [
        "Ġtrá»¯",
        -9.382214756681494
      ],
      [
        "ĠDa",
        -9.382327270209077
      ],
      [
        "Ġháº£i",
        -9.384596401932098
      ],
      [
        "ĠTiáº¿n",
        -9.385290943308515
      ],
      [
        "Ġcháº·t",
        -9.385694071153797
      ],
      [
        "ĠtrÃº",
        -9.386740282219204
      ],
      [
        "Ġlá»ĳi",
        -9.386913779247909
      ],
      [
        "ĠquÃª",
        -9.387534447298798
      ],
      [
        "ĠNgÃ¢n",
        -9.38885361523309
      ],
      [
        "ĠZ",
        -9.38929190616779
      ],
      [
        "se",
        -9.390178680249226
      ],
      [
        "ĠMáº·c",
        -9.390488340614604
      ],
      [
        "Ġthá»Ŀ",
        -9.390702950120822
      ],
      [
        "ĠÆ°a",
        -9.391614541254006
      ],
      [
        "ĠkhÃ¡n",
        -9.391992268472269
      ],
      [
        "Ġbi",
        -9.3924631421788
      ],
      [
        "ĠtrÃ²n",
        -9.392628630207437
      ],
      [
        "ĠthÃ©p",
        -9.396584136833328
      ],
      [
        "Ġbá»¥i",
        -9.396979412930316
      ],
      [
        "13",
        -9.397681855590577
      ],
      [
        "ĠquÃªn",
        -9.400798366425937
      ],
      [
        "Ġdá»ĭ",
        -9.402389686208757
      ],
      [
        "ĠHÆ°á»Ľng",
        -9.405011730652149
      ],
      [
        "Ġ08",
        -9.405642965015463
      ],
      [
        "ĠPro",
        -9.406113119522065
      ],
      [
        "ba",
        -9.406166290082751
      ],
      [
        "Ġpin",
        -9.406253231827096
      ],
      [
        "Ġrá»ĳi",
        -9.406369053490971
      ],
      [
        "ĠCháº¥t",
        -9.40686573574915
      ],
      [
        "Ġháº¹n",
        -9.408800995540195
      ],
      [
        "ĠCÅ©ng",
        -9.409198933418038
      ],
      [
        "ha",
        -9.410088125178929
      ],
      [
        "ĠÄĲÃ¬nh",
        -9.410224296062951
      ],
      [
        "is",
        -9.411371754456145
      ],
      [
        "Ġgiáº¥c",
        -9.413593704038714
      ],
      [
        "Ġná»£",
        -9.413774954975676
      ],
      [
        "Ġná»ķ",
        -9.413884784099563
      ],
      [
        "ĠÄĳáºŃu",
        -9.41485852778331
      ],
      [
        "ĠcháºŃm",
        -9.415853751508664
      ],
      [
        "Ġngá»«ng",
        -9.417810472313308
      ],
      [
        "ĠBÃ¡n",
        -9.418235314829603
      ],
      [
        "Ã©",
        -9.419228739374114
      ],
      [
        "ĠgiÃ£n",
        -9.419329707358738
      ],
      [
        "ĠlÃ£i",
        -9.419432543795448
      ],
      [
        "ĠhÆ°",
        -9.420370164892734
      ],
      [
        "Ġsa",
        -9.421849926903866
      ],
      [
        "ĠchÃ³",
        -9.422689163909936
      ],
      [
        "pe",
        -9.423453167690168
      ],
      [
        "á»Ľ",
        -9.42592157569281
      ],
      [
        "Ġtá»ķn",
        -9.426778552572308
      ],
      [
        "Ġkhá»Ľp",
        -9.42686639342024
      ],
      [
        "Ġgi",
        -9.426975362782144
      ],
      [
        "ca",
        -9.427042110429475
      ],
      [
        "ĠkÃŃn",
        -9.427101590038756
      ],
      [
        "ĠCity",
        -9.429192231393817
      ],
      [
        "ĠTÃ¬nh",
        -9.430072148633672
      ],
      [
        "ĠbÃ©o",
        -9.43130587803271
      ],
      [
        "ĠthoÃ¡ng",
        -9.43196434698639
      ],
      [
        "Ġloáº¡n",
        -9.43205872163996
      ],
      [
        "Ġand",
        -9.432116639602814
      ],
      [
        "Ġbuá»ĵn",
        -9.432387280297398
      ],
      [
        "ĠBÃŃ",
        -9.433209709962023
      ],
      [
        "Q",
        -9.434712025564089
      ],
      [
        "ĠhÃło",
        -9.43475599879592
      ],
      [
        "Ãªu",
        -9.434943259686158
      ],
      [
        "ĠGiao",
        -9.435563299093042
      ],
      [
        "Ġláº¯m",
        -9.438131917700424
      ],
      [
        "lu",
        -9.43822723459868
      ],
      [
        "Ġcá»ķng",
        -9.438427178724709
      ],
      [
        "Ġrá»Ŀi",
        -9.438898338800536
      ],
      [
        "ph",
        -9.439708609626756
      ],
      [
        "Ġná»Ńa",
        -9.439792783569906
      ],
      [
        "ĠÄĳua",
        -9.440337031313195
      ],
      [
        "Ġáº©n",
        -9.441333104296437
      ],
      [
        "Ġngang",
        -9.44295678177361
      ],
      [
        "Ġkhá»§ng",
        -9.443246990535714
      ],
      [
        "ĠnhÃłng",
        -9.444498119294776
      ],
      [
        "ĠgÆ°Æ¡ng",
        -9.445880452097615
      ],
      [
        "ĠÃ©p",
        -9.447871301858587
      ],
      [
        "ĠcÆ¡m",
        -9.44790364046682
      ],
      [
        "ĠngÃłn",
        -9.45010661298667
      ],
      [
        "ĠPhi",
        -9.450590489097417
      ],
      [
        "Ġtrá»įn",
        -9.45113301024532
      ],
      [
        "ĠVÃ¢n",
        -9.452350972235587
      ],
      [
        "ĠdÆ°á»£c",
        -9.456010733650432
      ],
      [
        "://",
        -9.457921272562686
      ],
      [
        "ĠlÃ£o",
        -9.458017560425608
      ],
      [
        "bi",
        -9.459353941781025
      ],
      [
        "Ã³",
        -9.459458987134298
      ],
      [
        "ĠTÃ¢m",
        -9.459736331626242
      ],
      [
        "Ġtáº£ng",
        -9.460411962669562
      ],
      [
        "ĠbÃ²",
        -9.461148083518053
      ],
      [
        "ĠThÆ°á»Ŀng",
        -9.463334368472196
      ],
      [
        "ĠtÃ´ng",
        -9.465241059162912
      ],
      [
        "Ġvitamin",
        -9.46541177648266
      ],
      [
        "va",
        -9.466292082859992
      ],
      [
        "ĠÄĳÃ£i",
        -9.466490108896028
      ],
      [
        "ĠMan",
        -9.46718307037126
      ],
      [
        "ĠSinh",
        -9.467576197096673
      ],
      [
        "ĠÄĳá»©a",
        -9.46926824159259
      ],
      [
        "á»ĭ",
        -9.46991899822802
      ],
      [
        "Ã¡",
        -9.471144349807
      ],
      [
        "17",
        -9.471802213702668
      ],
      [
        "ĠBo",
        -9.475578050924303
      ],
      [
        "Ġgiáº·t",
        -9.476637698576551
      ],
      [
        "ang",
        -9.477309189565997
      ],
      [
        "2014",
        -9.477998947848269
      ],
      [
        "ĠSu",
        -9.478482193767354
      ],
      [
        "Ġha",
        -9.479452405768566
      ],
      [
        "Ġcháº¡m",
        -9.480328070203386
      ],
      [
        "Ġro",
        -9.481490248825864
      ],
      [
        "Ġde",
        -9.481678936048262
      ],
      [
        "Ġphá»©c",
        -9.48294914322411
      ],
      [
        "Ã¹",
        -9.484910142778716
      ],
      [
        "ĠÄĲa",
        -9.48540611541932
      ],
      [
        "á»¥",
        -9.487787159897854
      ],
      [
        "ĠGoogle",
        -9.488047410323034
      ],
      [
        "ĠFacebook",
        -9.488262318632184
      ],
      [
        "ĠÄĳÃ²i",
        -9.488731230193723
      ],
      [
        "Ġnguyá»ĩn",
        -9.48913408669437
      ],
      [
        "ĠcÆ¡n",
        -9.489205564418038
      ],
      [
        "Ġbinh",
        -9.489228460759255
      ],
      [
        "ĠÄĳá»īnh",
        -9.489767165951786
      ],
      [
        "ĠLe",
        -9.49127436374338
      ],
      [
        "Ġ500",
        -9.492057064606746
      ],
      [
        "ĠkÃªnh",
        -9.49262478355943
      ],
      [
        "Ġnon",
        -9.492812930875244
      ],
      [
        "Ġ2014",
        -9.493043721597257
      ],
      [
        "Ġlá»ĩnh",
        -9.494620111408947
      ],
      [
        "Ġngá»«a",
        -9.494797181511348
      ],
      [
        "Ġthiá»ĥu",
        -9.49577061274355
      ],
      [
        "Ġmá»ĭn",
        -9.495786783869349
      ],
      [
        "Ġhá»©ng",
        -9.496768624564082
      ],
      [
        "ĠPhim",
        -9.49759515851293
      ],
      [
        "Ġmá»±c",
        -9.49771262316836
      ],
      [
        "ĠViá»ĩn",
        -9.498420199055774
      ],
      [
        "ĠRo",
        -9.498791909923137
      ],
      [
        "ĠTo",
        -9.4993158846833
      ],
      [
        "J",
        -9.49980506413428
      ],
      [
        "son",
        -9.500161306548362
      ],
      [
        "ĠÄĳá»ĭch",
        -9.501773148236582
      ],
      [
        "ĠâĢ¢",
        -9.5018253193521
      ],
      [
        "man",
        -9.502694732969486
      ],
      [
        "ĠCovid",
        -9.50289161904354
      ],
      [
        "Ġ2022",
        -9.503359683275308
      ],
      [
        "Ãªn",
        -9.503941169302058
      ],
      [
        "Ġchua",
        -9.50427061818399
      ],
      [
        "Ġtiá»ģm",
        -9.50446319911463
      ],
      [
        "Ġko",
        -9.50650614800016
      ],
      [
        "á»©c",
        -9.507374579197355
      ],
      [
        "Ġnhi",
        -9.509314722150272
      ],
      [
        "ĠVN",
        -9.50988916041051
      ],
      [
        "Ġmai",
        -9.510901745909296
      ],
      [
        "Ġquang",
        -9.513332811213116
      ],
      [
        "ĠbÃ£i",
        -9.513416010987118
      ],
      [
        "ĠGi",
        -9.51355981367464
      ],
      [
        "ĠCá»¥",
        -9.514934518427042
      ],
      [
        "Ã¡c",
        -9.515074786867622
      ],
      [
        "ĠÄĳáºŃm",
        -9.515232750321983
      ],
      [
        "Ġmi",
        -9.516350519152764
      ],
      [
        "ĠNÆ°á»Ľc",
        -9.51661339670439
      ],
      [
        "Ġdáº¡",
        -9.516948912517478
      ],
      [
        "Ġná»Ĺ",
        -9.517552008877542
      ],
      [
        "Ã²",
        -9.51774045450043
      ],
      [
        "Ġtráº§n",
        -9.518264508756715
      ],
      [
        "ĠGiá»Ľi",
        -9.518630757237553
      ],
      [
        "Ġnghiá»ģn",
        -9.51875865468874
      ],
      [
        "ĠMo",
        -9.518928948043616
      ],
      [
        "Ġva",
        -9.519117550067008
      ],
      [
        "ĠHÃ³a",
        -9.519171492747336
      ],
      [
        "ĠKhÃ¡nh",
        -9.519248125896643
      ],
      [
        "ĠÄĲÃło",
        -9.519518843048962
      ],
      [
        "ĠHiá»ĩp",
        -9.51960588837213
      ],
      [
        "ĠTNHH",
        -9.52012054465012
      ],
      [
        "ĠtÃ¢y",
        -9.521442181090594
      ],
      [
        "ĠtrÃ´ng",
        -9.52261082209771
      ],
      [
        "ine",
        -9.525739213876726
      ],
      [
        "ĠThá»§y",
        -9.527016070847148
      ],
      [
        "Æ°",
        -9.528205041172098
      ],
      [
        "ĠCá»ķ",
        -9.528841520350383
      ],
      [
        "ĠÄĲá»ĭnh",
        -9.529367084655483
      ],
      [
        "Ġmuá»ĳi",
        -9.529448854188672
      ],
      [
        "ĠAl",
        -9.5303839782764
      ],
      [
        "ĠPhÃºc",
        -9.530501073208557
      ],
      [
        "net",
        -9.531952940829145
      ],
      [
        "ĠPhan",
        -9.532417108949105
      ],
      [
        "Ġduyá»ĩt",
        -9.532517478638631
      ],
      [
        "40",
        -9.532625086512123
      ],
      [
        "kg",
        -9.53266636206346
      ],
      [
        "ĠxÆ°a",
        -9.534173104501985
      ],
      [
        "ĠtÃ¢n",
        -9.534607620724628
      ],
      [
        "22",
        -9.53622046468379
      ],
      [
        "ĠHCM",
        -9.536285034495982
      ],
      [
        "Ġtri",
        -9.536872210616272
      ],
      [
        "ĠQuÃ¢n",
        -9.538824471794246
      ],
      [
        "Ġtreo",
        -9.539332872455129
      ],
      [
        "ĠNgay",
        -9.539601460264567
      ],
      [
        "Ġloa",
        -9.540559417885037
      ],
      [
        "Tr",
        -9.541734129799789
      ],
      [
        "ĠÄĳá»±ng",
        -9.54276138365256
      ],
      [
        "ĠCáº§u",
        -9.54637968881988
      ],
      [
        "hÃ¢m",
        -9.547005440611782
      ],
      [
        "Ġhy",
        -9.547617634720623
      ],
      [
        "ll",
        -9.54786685706038
      ],
      [
        "Ã´ng",
        -9.548484318730427
      ],
      [
        "á»į",
        -9.549696733778733
      ],
      [
        "ĠThi",
        -9.550441713833798
      ],
      [
        "ve",
        -9.550570158741232
      ],
      [
        "em",
        -9.552978782701944
      ],
      [
        "ĠQuáº£n",
        -9.553310351540969
      ],
      [
        "ĠNháº¥t",
        -9.554969262439643
      ],
      [
        "ver",
        -9.555214415075342
      ],
      [
        "ĠrÃ£i",
        -9.555407944841578
      ],
      [
        "ĠNghá»ĩ",
        -9.55545086706422
      ],
      [
        "Ġtan",
        -9.556418447910312
      ],
      [
        "ĠDÆ°á»Ľi",
        -9.556526675374185
      ],
      [
        "Ġsáº¯m",
        -9.55703010916913
      ],
      [
        "ĠTuáº¥n",
        -9.55814413865503
      ],
      [
        "Ġhiá»ĥn",
        -9.559174854182086
      ],
      [
        "Ch",
        -9.559549848599088
      ],
      [
        "ate",
        -9.559619199692062
      ],
      [
        "Ġtá»ĩ",
        -9.559833272781374
      ],
      [
        "á»ĩ",
        -9.560024177671592
      ],
      [
        "Ġhá»ıng",
        -9.563443195236184
      ],
      [
        "Ġláº»",
        -9.56351626426276
      ],
      [
        "Ġgá»£i",
        -9.565740300765755
      ],
      [
        "ĠHD",
        -9.566149706554569
      ],
      [
        "ĠtÄ©nh",
        -9.567614385575473
      ],
      [
        "Ġga",
        -9.568159277309706
      ],
      [
        "ĠQuyáº¿t",
        -9.568676999681813
      ],
      [
        "ĠnghÃ¨o",
        -9.568857992124183
      ],
      [
        "Ġngá»±c",
        -9.568936546483195
      ],
      [
        "Ġ31",
        -9.569907483669558
      ],
      [
        "ĠbÃ¢y",
        -9.570304877229212
      ],
      [
        "ĠDÃ¢n",
        -9.570370013848816
      ],
      [
        "Ġná»Ĺi",
        -9.571617055088602
      ],
      [
        "ĠCá»¥c",
        -9.572361217789512
      ],
      [
        "ĠnhuáºŃn",
        -9.572703789273076
      ],
      [
        "Ġ80",
        -9.574621993480848
      ],
      [
        "ĠNo",
        -9.575307856849497
      ],
      [
        "ĠHo",
        -9.575905344792254
      ],
      [
        "ĠnÆ°á»Ľng",
        -9.576498929907862
      ],
      [
        "ĠdÆ°",
        -9.577007300669552
      ],
      [
        "ĠTá»Ń",
        -9.577221394905097
      ],
      [
        "ÄĲT",
        -9.579510415735903
      ],
      [
        "fi",
        -9.579848269234027
      ],
      [
        "ĠgiÃł",
        -9.580502175346275
      ],
      [
        "áº¿n",
        -9.583006513058123
      ],
      [
        "ĠtháºŃp",
        -9.583262665237788
      ],
      [
        "ĠVÃło",
        -9.58369684899762
      ],
      [
        "Ġmá»ıi",
        -9.584428589786713
      ],
      [
        "ĠnÃ£o",
        -9.584429120062635
      ],
      [
        "Ġváº½",
        -9.584632520546943
      ],
      [
        "Ġ03",
        -9.585631667091697
      ],
      [
        "bo",
        -9.586036779720017
      ],
      [
        "Ġvs",
        -9.586266072779395
      ],
      [
        "ĠVÆ°Æ¡ng",
        -9.58678842127823
      ],
      [
        "ĠmÃ£n",
        -9.588543463004392
      ],
      [
        "21",
        -9.589061321511606
      ],
      [
        "ĠÄĲÃłi",
        -9.589958433641211
      ],
      [
        "ĠTiáº¿p",
        -9.590470285076272
      ],
      [
        "Ġdao",
        -9.59055353082449
      ],
      [
        "Ġtruyá»ĩn",
        -9.591340776406533
      ],
      [
        "ĠBiÃªn",
        -9.591675245208137
      ],
      [
        "chi",
        -9.59262287512512
      ],
      [
        "ĠNew",
        -9.594582333312124
      ],
      [
        "Ġph",
        -9.594668342267152
      ],
      [
        "ĠTÃŃnh",
        -9.595069429161867
      ],
      [
        "ĠTiá»ģn",
        -9.595630992781182
      ],
      [
        "ĠbÆ¡i",
        -9.596338069389128
      ],
      [
        "ĠNgoáº¡i",
        -9.596553752566978
      ],
      [
        "sa",
        -9.597535796370073
      ],
      [
        "45",
        -9.5982526646312
      ],
      [
        "Ġvong",
        -9.599573229084015
      ],
      [
        "ĠBi",
        -9.599839414928637
      ],
      [
        "ĠCÃ¢u",
        -9.60037556848117
      ],
      [
        "ĠÄĳÃłi",
        -9.600764831096336
      ],
      [
        "Ġsá»ĳt",
        -9.602357050552742
      ],
      [
        "Ġdiá»ĩt",
        -9.602623916955553
      ],
      [
        "ĠsÃ´i",
        -9.60542422995752
      ],
      [
        "ho",
        -9.60667633563395
      ],
      [
        "ĠgiÆ°á»Ŀng",
        -9.606953380768047
      ],
      [
        "Ġfor",
        -9.607268887425246
      ],
      [
        "Ġkh",
        -9.608808424671864
      ],
      [
        "ĠCá»Ļng",
        -9.60903910539299
      ],
      [
        "Z",
        -9.609463452769424
      ],
      [
        "ĠphÃ¡i",
        -9.609520949877137
      ],
      [
        "Ġpháº«u",
        -9.610091246385275
      ],
      [
        "ĠTÃ¬m",
        -9.612481172205204
      ],
      [
        "ĠnÃºt",
        -9.612601520862944
      ],
      [
        "ĠkhoÃ¡n",
        -9.613419068866966
      ],
      [
        "Ġ90",
        -9.6143294850197
      ],
      [
        "ĠthÆ°á»£ng",
        -9.614382964412286
      ],
      [
        "ĠÃĿ",
        -9.615437815534918
      ],
      [
        "ĠVÄ©nh",
        -9.615554811960058
      ],
      [
        "Ġbe",
        -9.61713123083825
      ],
      [
        "á»Ł",
        -9.617155343690012
      ],
      [
        "ĠTrÆ°á»Łng",
        -9.619313117292096
      ],
      [
        "Ġ70",
        -9.61952196667107
      ],
      [
        "Ġbáº¯n",
        -9.620160522860758
      ],
      [
        "NH",
        -9.621902091499503
      ],
      [
        "ĠHi",
        -9.626579032885417
      ],
      [
        "Ġmáº¡c",
        -9.627594125225157
      ],
      [
        "Ġthá»Ł",
        -9.628050893037775
      ],
      [
        "tin",
        -9.630289464617093
      ],
      [
        "ĠTPHCM",
        -9.630808629065672
      ],
      [
        "ĠHa",
        -9.633083055099329
      ],
      [
        "áº§n",
        -9.634089862988448
      ],
      [
        "Ġmá»ĩt",
        -9.634275489277766
      ],
      [
        "Ã¬",
        -9.638868005088348
      ],
      [
        "der",
        -9.638948317688882
      ],
      [
        "Ġvá»¡",
        -9.63950743075648
      ],
      [
        "ĠmÃłng",
        -9.63960947809776
      ],
      [
        "ĠTR",
        -9.640334485280643
      ],
      [
        "Ġcá»§",
        -9.64338693490665
      ],
      [
        "j",
        -9.644070128393803
      ],
      [
        "Ġng",
        -9.645910439893532
      ],
      [
        "ĠÄĲá»Ļi",
        -9.648092935953796
      ],
      [
        "Ġá»§ng",
        -9.648801827078229
      ],
      [
        "ĠÄĲiá»ĥm",
        -9.648972161743432
      ],
      [
        "Ġbá»Ŀ",
        -9.65117024228998
      ],
      [
        "ĠthÃ¡ch",
        -9.65175536233638
      ],
      [
        "Ġtá»ĳn",
        -9.65212532215068
      ],
      [
        "est",
        -9.65399141142916
      ],
      [
        "ĠTá»±",
        -9.65407473980049
      ],
      [
        "ĠtrÆ°Æ¡ng",
        -9.654252260393212
      ],
      [
        "Ġcháº¥m",
        -9.655003179514216
      ],
      [
        "ĠApple",
        -9.65725501478672
      ],
      [
        "Ġcá»Ļt",
        -9.659123640066603
      ],
      [
        "áº¥t",
        -9.659218281544202
      ],
      [
        "ĠHÃ¹ng",
        -9.661822337191891
      ],
      [
        "ĠHÆ¡n",
        -9.662126746481276
      ],
      [
        "Ġre",
        -9.662312746028396
      ],
      [
        "ĠNH",
        -9.66238795005392
      ],
      [
        "Ġchuá»Ļng",
        -9.66602304779138
      ],
      [
        "Ġtrá»Ļi",
        -9.666322324051617
      ],
      [
        "Ġ07",
        -9.666411304279508
      ],
      [
        "ĠchÃºc",
        -9.66719404346206
      ],
      [
        "Ġli",
        -9.667240350657782
      ],
      [
        "eo",
        -9.668817066832542
      ],
      [
        "Ġhá»ĵn",
        -9.668899153574587
      ],
      [
        "ĠNi",
        -9.66947606883254
      ],
      [
        "ĠLÃºc",
        -9.670428535144142
      ],
      [
        "ĠhÃ´i",
        -9.673129956624834
      ],
      [
        "ĠQua",
        -9.673684227969238
      ],
      [
        "Ġtrá»Ļn",
        -9.673901908265387
      ],
      [
        "ĠSamsung",
        -9.674026723760871
      ],
      [
        "ĠdáºŃy",
        -9.67435926537327
      ],
      [
        "ĠHuy",
        -9.674393694611432
      ],
      [
        "Ġpháº¥n",
        -9.675359230609276
      ],
      [
        "Ġhiáº¿m",
        -9.67560431530206
      ],
      [
        "Ãģ",
        -9.676357924542652
      ],
      [
        "ĠMá»Ľi",
        -9.6775411453485
      ],
      [
        "Ġhiá»ĩp",
        -9.67783167906422
      ],
      [
        "ĠtrÃłn",
        -9.679920998467963
      ],
      [
        "Ġtáº©y",
        -9.68009861652008
      ],
      [
        "Ġtháº¥m",
        -9.680464337642588
      ],
      [
        "ĠÄĳÄ©a",
        -9.68116821013484
      ],
      [
        "Ġthiá»ĩt",
        -9.68121444325879
      ],
      [
        "Ġáº¤n",
        -9.681281405810164
      ],
      [
        "Ġmá»ıng",
        -9.682042780043512
      ],
      [
        "TÃ´i",
        -9.683580238275956
      ],
      [
        "ĠthÃ¹",
        -9.684376843821834
      ],
      [
        "ĠÄĳá»©c",
        -9.685404717205754
      ],
      [
        "á»ı",
        -9.685972523696265
      ],
      [
        "ĠTr",
        -9.690174347508536
      ],
      [
        "á»ĵn",
        -9.6903295804245
      ],
      [
        "ĠMá»¥c",
        -9.69092594842914
      ],
      [
        "Ġtháº£",
        -9.69139995190597
      ],
      [
        "ĠNháºŃn",
        -9.69242769471753
      ],
      [
        "Ġnháº¯n",
        -9.692929578242516
      ],
      [
        "Ġnáº¡",
        -9.69484761983929
      ],
      [
        "ĠMua",
        -9.695681968000873
      ],
      [
        "Ġtá»±a",
        -9.696833080551492
      ],
      [
        "ĠtrÃło",
        -9.697818966721709
      ],
      [
        "ĠdÃ¡n",
        -9.69897023971162
      ],
      [
        "Ġnáº¥m",
        -9.699257105933288
      ],
      [
        "ĠKáº¿",
        -9.69949346555454
      ],
      [
        "á»±",
        -9.699762009440796
      ],
      [
        "Ġgáº¡o",
        -9.7000860239505
      ],
      [
        "ĠgiÃ¢y",
        -9.700153475186951
      ],
      [
        "ĠnghÃ¬n",
        -9.700897474872123
      ],
      [
        "Ġtung",
        -9.70163838552156
      ],
      [
        "ĠrÃ¡c",
        -9.702627778482029
      ],
      [
        "ĠCup",
        -9.703019885672465
      ],
      [
        "ko",
        -9.703477094085356
      ],
      [
        "2013",
        -9.703806544668408
      ],
      [
        "so",
        -9.704363220234844
      ],
      [
        "Ġná»Ļp",
        -9.70438804227754
      ],
      [
        "ĠTham",
        -9.704614673631278
      ],
      [
        "Ġ2013",
        -9.70491690420293
      ],
      [
        "Ġtráº¥n",
        -9.708020302772892
      ],
      [
        "á»Ļ",
        -9.709211720749536
      ],
      [
        "ĠThá»ĥ",
        -9.7107599675448
      ],
      [
        "ao",
        -9.712215019828596
      ],
      [
        "ĠÄĳiá»ĩu",
        -9.713323275655643
      ],
      [
        "Ġtráº§m",
        -9.715736398667165
      ],
      [
        "áº¯c",
        -9.716302243637635
      ],
      [
        "ĠÄĳá»£t",
        -9.716308567726005
      ],
      [
        "ĠPa",
        -9.71656050154076
      ],
      [
        "ĠLoáº¡i",
        -9.717748505406805
      ],
      [
        "Ġtiá»ĩc",
        -9.717929109334396
      ],
      [
        "ĠbÃ´ng",
        -9.71828768375382
      ],
      [
        "ai",
        -9.718509873401183
      ],
      [
        "ĠtÃ¡n",
        -9.719590630332236
      ],
      [
        "Ġ04",
        -9.71990341882954
      ],
      [
        "ĠHuáº¿",
        -9.720304294685798
      ],
      [
        "Ġhá»§y",
        -9.721537194254353
      ],
      [
        "ĠKi",
        -9.721841541582632
      ],
      [
        "ĠPhá»¥",
        -9.72287704330438
      ],
      [
        "Ãªm",
        -9.72315501558675
      ],
      [
        "ĠBÃ¡c",
        -9.723529366219784
      ],
      [
        "Ġgiá»ıi",
        -9.723965616900898
      ],
      [
        "Ġmiáº¿ng",
        -9.727450443445502
      ],
      [
        "Ġ300",
        -9.727472740497896
      ],
      [
        "ĠCáº£nh",
        -9.72775866765999
      ],
      [
        "ĠBáº±ng",
        -9.727976828513134
      ],
      [
        "ĠNá»¯",
        -9.728065944572776
      ],
      [
        "Ġ06",
        -9.72891880703189
      ],
      [
        "áº",
        -9.73235441556729
      ],
      [
        "ĠThuáºŃn",
        -9.734583803050056
      ],
      [
        "ĠToÃłn",
        -9.734722858823137
      ],
      [
        "Ġbáº©n",
        -9.735292300903373
      ],
      [
        "ĠThÃ¡nh",
        -9.735536983369862
      ],
      [
        "Äĥng",
        -9.736244487070165
      ],
      [
        "á»ĩn",
        -9.73671682813966
      ],
      [
        "su",
        -9.737416599683073
      ],
      [
        "Ġhuáº¥n",
        -9.737779578137792
      ],
      [
        "áº¿",
        -9.73801155042148
      ],
      [
        "ĠkÃªu",
        -9.738857631161
      ],
      [
        "ĠcÃº",
        -9.73928399647038
      ],
      [
        "ĠbÆ¡m",
        -9.739396659950916
      ],
      [
        "500",
        -9.740681680980677
      ],
      [
        "ĠnhÃ£n",
        -9.741628363090523
      ],
      [
        "ĠTiá»ĥu",
        -9.742199628973037
      ],
      [
        "ĠHÃłnh",
        -9.743236870110184
      ],
      [
        "hu",
        -9.743341519079616
      ],
      [
        "ĠkhoÃ¡ng",
        -9.743807789477524
      ],
      [
        "ation",
        -9.744004654486275
      ],
      [
        "ĠbÃª",
        -9.74474383943845
      ],
      [
        "Ġnáº¡p",
        -9.745489888044268
      ],
      [
        "ĠTá»īnh",
        -9.74642149973035
      ],
      [
        "ĠbÃ¡m",
        -9.747269580206437
      ],
      [
        "@",
        -9.748764287818757
      ],
      [
        "ĠCáº£",
        -9.749855235924295
      ],
      [
        "ĠLo",
        -9.751232105462536
      ],
      [
        "ĠdÃ¢u",
        -9.752368692526964
      ],
      [
        "Ġ05",
        -9.755480057298549
      ],
      [
        "Ã£",
        -9.75846012630312
      ],
      [
        "Ġná»ĵi",
        -9.758988826680138
      ],
      [
        "ĠVá»ĭ",
        -9.759294073690189
      ],
      [
        "ĠxuÃ¢n",
        -9.76009740495647
      ],
      [
        "ĠchÃŃn",
        -9.760515432598426
      ],
      [
        "Ġphun",
        -9.76236509013723
      ],
      [
        "Ġme",
        -9.76283109855347
      ],
      [
        "Ġcanh",
        -9.764826773914567
      ],
      [
        "ĠOnline",
        -9.76541191630816
      ],
      [
        "ĠÄĲáº¥t",
        -9.765772559467178
      ],
      [
        "60",
        -9.7658748409657
      ],
      [
        "ĠGa",
        -9.766570210707872
      ],
      [
        "Ġtá»ıa",
        -9.767209298753228
      ],
      [
        "ĠLá»ħ",
        -9.767434557235743
      ],
      [
        "bá»įc",
        -9.767619500951325
      ],
      [
        "ĠMáº¹",
        -9.767805049335616
      ],
      [
        "ĠQuan",
        -9.768541293348871
      ],
      [
        "ĠChiáº¿n",
        -9.769183988269065
      ],
      [
        "ĠlÃŃ",
        -9.769357391395452
      ],
      [
        "as",
        -9.77056960963584
      ],
      [
        "Æ¯",
        -9.770662920251246
      ],
      [
        "Ġbang",
        -9.770671062223672
      ],
      [
        "ĠWorld",
        -9.771199055236266
      ],
      [
        "ĠbÃ¡t",
        -9.77150161732563
      ],
      [
        "ĠSÃ¡ng",
        -9.77217002880934
      ],
      [
        "ĠCÃ¡",
        -9.773784175013358
      ],
      [
        "ĠGiáº¥y",
        -9.774306433647784
      ],
      [
        "ĠTop",
        -9.774648300256167
      ],
      [
        "ĠPhÆ°á»Ľc",
        -9.774959264161463
      ],
      [
        "ĠPark",
        -9.774993095230672
      ],
      [
        "Ã",
        -9.775872315291537
      ],
      [
        "ĠCuá»Ļc",
        -9.779550833071706
      ],
      [
        "Ġngá»Ļ",
        -9.779561830591367
      ],
      [
        "ĠhÃ¹ng",
        -9.779868892794926
      ],
      [
        "ĠdÃŃnh",
        -9.781085146127143
      ],
      [
        "ĠâĢĺ",
        -9.781383739948982
      ],
      [
        "ĠPh",
        -9.781859537765056
      ],
      [
        "ĠthÃ¹ng",
        -9.783705143438109
      ],
      [
        "ĠÄĳeo",
        -9.78496428338528
      ],
      [
        "ĠMáº«u",
        -9.7856090251378
      ],
      [
        "ĠsÄĥn",
        -9.78573293850197
      ],
      [
        "ĠsÃ¡nh",
        -9.78584387435745
      ],
      [
        "Ġcá»ı",
        -9.7875364116863
      ],
      [
        "Äĥn",
        -9.788622413561368
      ],
      [
        "ĠXÃ¢y",
        -9.789210411717026
      ],
      [
        "ĠcÆ°Æ¡ng",
        -9.78947546448634
      ],
      [
        "ĠDanh",
        -9.7897755524616
      ],
      [
        "ĠÄĳá»ĳt",
        -9.792277175037654
      ],
      [
        "ĠNÃªn",
        -9.792413108849814
      ],
      [
        "ĠXin",
        -9.793188826871184
      ],
      [
        "200",
        -9.793238670806646
      ],
      [
        "one",
        -9.793670093783613
      ],
      [
        "Ġsá»¹",
        -9.794670887613137
      ],
      [
        "ru",
        -9.795477907908673
      ],
      [
        "ĠHy",
        -9.79670244697688
      ],
      [
        "á»ĩt",
        -9.797581089612471
      ],
      [
        "ĠnÃªu",
        -9.797956190972238
      ],
      [
        "ĠMá»įi",
        -9.798220605241395
      ],
      [
        "ĠDÅ©ng",
        -9.798396716254546
      ],
      [
        "ĠvÃ¡y",
        -9.798407234353345
      ],
      [
        "Ġtháº£m",
        -9.798692674591113
      ],
      [
        "Ġruá»Ļt",
        -9.799984979764105
      ],
      [
        "35",
        -9.800737560168812
      ],
      [
        "Ġsá»£i",
        -9.80172485301128
      ],
      [
        "ĠPH",
        -9.802237505629174
      ],
      [
        "ĠDuy",
        -9.802353937435598
      ],
      [
        "land",
        -9.802741172362907
      ],
      [
        "Ġtrá»¥c",
        -9.803386444411204
      ],
      [
        "Ġcá»ĳt",
        -9.80349661632913
      ],
      [
        "ĠkhuyÃªn",
        -9.803733949161114
      ],
      [
        "ĠmÃ³c",
        -9.804177125961903
      ],
      [
        "ĠTrá»įng",
        -9.804554113369027
      ],
      [
        "ĠÄĳáº£ng",
        -9.80675009621278
      ],
      [
        "ĠDoanh",
        -9.806799183861028
      ],
      [
        "Ġxoay",
        -9.8072472824311
      ],
      [
        "per",
        -9.808969932038003
      ],
      [
        "Ġcá»Ŀ",
        -9.809021953673712
      ],
      [
        "Ġti",
        -9.809287384076562
      ],
      [
        "Ġáº£o",
        -9.809580750714408
      ],
      [
        "ĠgiÃ¡p",
        -9.810158537707876
      ],
      [
        "tu",
        -9.811452461579416
      ],
      [
        "op",
        -9.814333304250145
      ],
      [
        "ĠthÃ¢m",
        -9.814413070285678
      ],
      [
        "Ġhuá»ĳng",
        -9.814546080980133
      ],
      [
        "ĠxÆ°á»Łng",
        -9.815825676944913
      ],
      [
        "ĠbuÃ´n",
        -9.817506131460233
      ],
      [
        "ĠVá»¥",
        -9.81752277054678
      ],
      [
        "ĠxÃ¢m",
        -9.818869040484344
      ],
      [
        "ĠNguá»ĵn",
        -9.81929830479656
      ],
      [
        "ĠVinh",
        -9.81960399503561
      ],
      [
        "ĠlÃ²",
        -9.82039549961731
      ],
      [
        "ĠTháº§n",
        -9.820427511673454
      ],
      [
        "ĠÄĳam",
        -9.821711144821665
      ],
      [
        "Ġcáº¥m",
        -9.821869891116382
      ],
      [
        "Ġhoang",
        -9.821905754641325
      ],
      [
        "ĠTháº£o",
        -9.822211973431276
      ],
      [
        "Ġchuá»Ĺi",
        -9.822274283950168
      ],
      [
        "ĠAndroid",
        -9.823964963987605
      ],
      [
        "ĠthÃ¡o",
        -9.82453384014647
      ],
      [
        "ĠchÃ¹a",
        -9.826644873949526
      ],
      [
        "2012",
        -9.826698839939857
      ],
      [
        "Ġbá»ĳn",
        -9.82696286279944
      ],
      [
        "Ġ2012",
        -9.8282718315232
      ],
      [
        "ĠBe",
        -9.83134789663202
      ],
      [
        "ĠÄĳuá»ķi",
        -9.831923413859275
      ],
      [
        "Ġgá»¡",
        -9.832020195616176
      ],
      [
        "ĠKa",
        -9.832042443879834
      ],
      [
        "Ġ35",
        -9.832198869303731
      ],
      [
        "ĠKH",
        -9.83236599786166
      ],
      [
        "ĠChá»įn",
        -9.834022437744448
      ],
      [
        "CP",
        -9.83438690905594
      ],
      [
        "á»ģn",
        -9.834502934157452
      ],
      [
        "Ġsáº¡c",
        -9.834771383300447
      ],
      [
        "Ġthá»į",
        -9.835033157285542
      ],
      [
        "ĠHÃ´m",
        -9.835240774954697
      ],
      [
        "ĠTiáº¿ng",
        -9.83573012415395
      ],
      [
        "ĠTÃªn",
        -9.835899868809378
      ],
      [
        "Ġkháº¥u",
        -9.837311090818528
      ],
      [
        "ĠphÃ³",
        -9.837725835917569
      ],
      [
        "ĠbÃ³",
        -9.838132704963089
      ],
      [
        "ĠtÃłn",
        -9.83838226545782
      ],
      [
        "ĠLeague",
        -9.838518649454109
      ],
      [
        "Ġvang",
        -9.838756292487684
      ],
      [
        "ĠChuyÃªn",
        -9.838830715052412
      ],
      [
        "ĠcÃ¡p",
        -9.838878960272908
      ],
      [
        "Ġchuá»Ļt",
        -9.83956576024604
      ],
      [
        "Ġká»ĭch",
        -9.840097861983091
      ],
      [
        "Ġcháº¥n",
        -9.841279850427163
      ],
      [
        "Ã¹ng",
        -9.842344727072392
      ],
      [
        "ĠtÃ¡o",
        -9.84288358787407
      ],
      [
        "ĠChu",
        -9.845513368819782
      ],
      [
        "ĠnhÃ´m",
        -9.845520948467708
      ],
      [
        "á»ķ",
        -9.84610287249826
      ],
      [
        "ĠVÃµ",
        -9.846378401040274
      ],
      [
        "shi",
        -9.846695416216171
      ],
      [
        "Ġchá»¥c",
        -9.847343819785854
      ],
      [
        "ĠQu",
        -9.84886429371434
      ],
      [
        "ĠKiá»ĥm",
        -9.848926331933631
      ],
      [
        "ĠmÃ¬",
        -9.850430728702522
      ],
      [
        "ĠmÃŃ",
        -9.85093751861752
      ],
      [
        "ĠNh",
        -9.85381078881631
      ],
      [
        "áº¯t",
        -9.85431663909711
      ],
      [
        "ĠMe",
        -9.854833871769015
      ],
      [
        "Ġqu",
        -9.85529839703207
      ],
      [
        "Ġrá»§i",
        -9.855510778363154
      ],
      [
        "26",
        -9.855536124527706
      ],
      [
        "%.",
        -9.856145294414311
      ],
      [
        "ĠtÃ´m",
        -9.85625292794425
      ],
      [
        "ĠbÃ£o",
        -9.85657856008667
      ],
      [
        "áº¥p",
        -9.85728421448126
      ],
      [
        "Ġcu",
        -9.857763874905531
      ],
      [
        "ĠHe",
        -9.858624752305202
      ],
      [
        "ĠMÃłu",
        -9.85949694427038
      ],
      [
        "Ng",
        -9.85956889474641
      ],
      [
        "ĠmÃły",
        -9.85979827607659
      ],
      [
        "ĠxÃ³a",
        -9.859959224098189
      ],
      [
        "ĠJo",
        -9.860502324424894
      ],
      [
        "ĠÄĲá»Ļng",
        -9.861484818300262
      ],
      [
        "Ġbá»įn",
        -9.861781024510542
      ],
      [
        "Ġthan",
        -9.861955816818917
      ],
      [
        "Ġkm",
        -9.862389329871732
      ],
      [
        "ĠhÃ´",
        -9.862903389179293
      ],
      [
        "ĠThÆ°",
        -9.863258122255926
      ],
      [
        "ĠTrÃł",
        -9.863842685171509
      ],
      [
        "Ġsoi",
        -9.86448611320139
      ],
      [
        "ĠÄĳáºŃp",
        -9.865207811877433
      ],
      [
        "ĠngÆ°á»¡ng",
        -9.86616254268643
      ],
      [
        "Ã¡i",
        -9.867659675999011
      ],
      [
        "ĠdÃ¢m",
        -9.867763005856109
      ],
      [
        "Ġ45",
        -9.868011101044829
      ],
      [
        "2022",
        -9.868642692253031
      ],
      [
        "Ġmá»įc",
        -9.868956012553491
      ],
      [
        "ĠvÃ¢n",
        -9.869492001292455
      ],
      [
        "Ġtop",
        -9.87015162560386
      ],
      [
        "Ġná»Ł",
        -9.870779139905302
      ],
      [
        "km",
        -9.871270684164887
      ],
      [
        "ĠcÃ¡t",
        -9.872264490311942
      ],
      [
        "ĠTHPT",
        -9.873037690966587
      ],
      [
        "á»ĳi",
        -9.87382942933386
      ],
      [
        "Ġviá»ĩt",
        -9.875723915735822
      ],
      [
        "ĠMar",
        -9.875752867225703
      ],
      [
        "Ġdá»©t",
        -9.876188981407362
      ],
      [
        "ĠTi",
        -9.878185923151626
      ],
      [
        "Ġse",
        -9.878390940803364
      ],
      [
        "ĠNÃ´ng",
        -9.87888763774864
      ],
      [
        "ĠthÃ³i",
        -9.879242046233385
      ],
      [
        "ĠlÃ¢y",
        -9.879443923354067
      ],
      [
        "ard",
        -9.879609798689156
      ],
      [
        "ĠTÃ¡c",
        -9.879921849743088
      ],
      [
        "Ġhot",
        -9.881174452006936
      ],
      [
        "ĠPo",
        -9.88164165376186
      ],
      [
        "ĠLoan",
        -9.88211167034693
      ],
      [
        "ĠÄĲH",
        -9.882742762630883
      ],
      [
        "Ġgiá»įng",
        -9.883079780754024
      ],
      [
        "Ġá»ķ",
        -9.88466415287177
      ],
      [
        "bu",
        -9.884806722834163
      ],
      [
        "á»ĵng",
        -9.885491746059664
      ],
      [
        "ĠtiÃªm",
        -9.885965221441548
      ],
      [
        "áºŃp",
        -9.8862806850702
      ],
      [
        "Ġcáº©n",
        -9.886697901434468
      ],
      [
        "Ġláº§m",
        -9.888129704055338
      ],
      [
        "Ġbáº¡ch",
        -9.88837638546608
      ],
      [
        "ĠChá»ĭ",
        -9.888594631352792
      ],
      [
        "Ġcá»¡",
        -9.888766226445934
      ],
      [
        "Ġvirus",
        -9.88938379561151
      ],
      [
        "Ġhá»Ĺn",
        -9.889760475068163
      ],
      [
        "ĠghÃ©p",
        -9.891314096855664
      ],
      [
        "ĠTÃłu",
        -9.891699458286642
      ],
      [
        "ĠCÃ¡i",
        -9.891763429988162
      ],
      [
        "Ġgáº¡ch",
        -9.892331955360683
      ],
      [
        "ĠÄĳÃł",
        -9.89313549422744
      ],
      [
        "ĠRi",
        -9.893647174162355
      ],
      [
        "AN",
        -9.893887930066692
      ],
      [
        "Ġbá»ĵi",
        -9.894920591117463
      ],
      [
        "ĠThÆ¡",
        -9.895140955889977
      ],
      [
        "ĠThay",
        -9.895819883237234
      ],
      [
        "Ġmáº£nh",
        -9.896214467819052
      ],
      [
        "Ġchá»Ł",
        -9.896232551034936
      ],
      [
        "Ġhá»©a",
        -9.896580331381678
      ],
      [
        "ĠÄĳáº¡p",
        -9.89665962472974
      ],
      [
        "ĠHome",
        -9.897357257133764
      ],
      [
        "Ġnháº¡y",
        -9.898218399216264
      ],
      [
        "ĠTrump",
        -9.898575522869992
      ],
      [
        "ĠdÃłn",
        -9.898960727978457
      ],
      [
        "ĠTam",
        -9.899358452796076
      ],
      [
        "Ġgiáº¿t",
        -9.899788496738504
      ],
      [
        "ĠphÃ¡n",
        -9.9004477427887
      ],
      [
        "ĠÃ´m",
        -9.9010575032614
      ],
      [
        "ĠKÃŃch",
        -9.90128051907818
      ],
      [
        "CH",
        -9.902427255291895
      ],
      [
        "ĠTráº£",
        -9.90256981600924
      ],
      [
        "ĠII",
        -9.903595637670003
      ],
      [
        "ĠtáºŃt",
        -9.90373043243405
      ],
      [
        "ĠInternet",
        -9.903809520148432
      ],
      [
        "ĠkhÃŃch",
        -9.903904857329556
      ],
      [
        "Ġquá»¹",
        -9.905018574432244
      ],
      [
        "ĠÄĲÃ£",
        -9.905674041037672
      ],
      [
        "ĠHá»¯u",
        -9.905786616120087
      ],
      [
        "ĠkiÃªn",
        -9.90594739640262
      ],
      [
        "ĠTÃº",
        -9.906508815834895
      ],
      [
        "TP",
        -9.90702336876665
      ],
      [
        "Ġchá»§ng",
        -9.907149380552024
      ],
      [
        "ĠAi",
        -9.907474730149454
      ],
      [
        "om",
        -9.90798618019008
      ],
      [
        "Ġhuynh",
        -9.908030457458896
      ],
      [
        "Ġphá»ıng",
        -9.909022666415929
      ],
      [
        "Ã¨",
        -9.909789380344307
      ],
      [
        "ĠCOVID",
        -9.911215178547286
      ],
      [
        "áº¿t",
        -9.911811524807437
      ],
      [
        "min",
        -9.911954508413832
      ],
      [
        "80",
        -9.91247245441862
      ],
      [
        "Ġbá»ĥ",
        -9.913969186678012
      ],
      [
        "ĠtÃ¡ch",
        -9.91458339783104
      ],
      [
        "Trong",
        -9.914785364076554
      ],
      [
        "ĠNÃ³i",
        -9.915052604229114
      ],
      [
        "Ġthuyá»ģn",
        -9.915361657413069
      ],
      [
        "70",
        -9.915644463262586
      ],
      [
        "be",
        -9.917638828866766
      ],
      [
        "ton",
        -9.91790429210639
      ],
      [
        "ĠkhoÃ¡",
        -9.918152508985408
      ],
      [
        "ĠÄĲi",
        -9.9192268259953
      ],
      [
        "Ã¡m",
        -9.919301786798746
      ],
      [
        "ĠtrÃºng",
        -9.921009125171064
      ],
      [
        "line",
        -9.92190041025219
      ],
      [
        "ĠBáº¥t",
        -9.922300288247346
      ],
      [
        "ĠlÃ£n",
        -9.92231266700248
      ],
      [
        "ĠCLB",
        -9.922701067737334
      ],
      [
        "á»ħ",
        -9.92338403076802
      ],
      [
        "33",
        -9.924492481497827
      ],
      [
        "ĠThÆ°á»£ng",
        -9.924539614675286
      ],
      [
        "ĠHoÃłn",
        -9.925076774323497
      ],
      [
        "ĠGalaxy",
        -9.925362804369248
      ],
      [
        "ĠphÃŃm",
        -9.92565884957542
      ],
      [
        "ĠVietnam",
        -9.92613552230948
      ],
      [
        "38",
        -9.926497655499167
      ],
      [
        "ĠÄĲá»ģ",
        -9.927308713553286
      ],
      [
        "ner",
        -9.927500943839604
      ],
      [
        "ĠLÆ°Æ¡ng",
        -9.929595590668644
      ],
      [
        "ĠLu",
        -9.929716569537986
      ],
      [
        "ĠViÃªn",
        -9.93088595859848
      ],
      [
        "mon",
        -9.931422749646746
      ],
      [
        "con",
        -9.931613469422295
      ],
      [
        "Ġvinh",
        -9.931639068241404
      ],
      [
        "ge",
        -9.93163926701036
      ],
      [
        "he",
        -9.931820663750806
      ],
      [
        "Ġtáº¿t",
        -9.93584908276166
      ],
      [
        "ĠÃ¡i",
        -9.936085338144451
      ],
      [
        "ml",
        -9.93845936438024
      ],
      [
        "ĠCÃĶNG",
        -9.938999750636343
      ],
      [
        "Ġfan",
        -9.939190311549424
      ],
      [
        "28",
        -9.939318302773604
      ],
      [
        "ĠTruyá»ģn",
        -9.94081261114549
      ],
      [
        "ĠnhÃ¡nh",
        -9.941257958980524
      ],
      [
        "Ã¢u",
        -9.941775360205638
      ],
      [
        "ĠbÃ¬",
        -9.942236625719191
      ],
      [
        "ĠngÆ¡i",
        -9.942642820115267
      ],
      [
        "ĠÃļc",
        -9.943274771472913
      ],
      [
        "ĠVÃŃ",
        -9.944547498183695
      ],
      [
        "ĠSingapore",
        -9.946150580421776
      ],
      [
        "ite",
        -9.949578378870712
      ],
      [
        "ĠxÄĥng",
        -9.94962472226527
      ],
      [
        "Ġdá»ĭu",
        -9.949730883496423
      ],
      [
        "Ġlá»«a",
        -9.949791660365404
      ],
      [
        "ĠbÃ¡",
        -9.950832248878358
      ],
      [
        "ĠCá»Ńa",
        -9.95105422230509
      ],
      [
        "ĠÄĲÃ¡nh",
        -9.951225265838474
      ],
      [
        "ĠTT",
        -9.951624661224038
      ],
      [
        "ĠHá»£p",
        -9.9517608881871
      ],
      [
        "ĠTiÃªu",
        -9.953164304212994
      ],
      [
        "ĠPM",
        -9.956550443297358
      ],
      [
        "up",
        -9.956764166147575
      ],
      [
        "au",
        -9.95894536637271
      ],
      [
        "Ġmáº»",
        -9.959110021328256
      ],
      [
        "ty",
        -9.959332611979749
      ],
      [
        "ĠWindows",
        -9.960169547607231
      ],
      [
        "ect",
        -9.960895971136082
      ],
      [
        "ĠGo",
        -9.961170749176985
      ],
      [
        "Ġlaptop",
        -9.96126392929842
      ],
      [
        "ĠBáº¡ch",
        -9.961411302280204
      ],
      [
        "ep",
        -9.9623727618559
      ],
      [
        "Ġthá»ķ",
        -9.962486491416694
      ],
      [
        "ĠsÃºng",
        -9.962489272521337
      ],
      [
        "Ġfile",
        -9.963037251797408
      ],
      [
        "Ġcáº£n",
        -9.963202054534538
      ],
      [
        "Nhá»¯ng",
        -9.963379762835256
      ],
      [
        "ga",
        -9.96356112713014
      ],
      [
        "ina",
        -9.964133026659322
      ],
      [
        "ĠNai",
        -9.964201068605972
      ],
      [
        "27",
        -9.964551426760227
      ],
      [
        "Ġcong",
        -9.96504603824132
      ],
      [
        "Ġxá»©ng",
        -9.96571374836448
      ],
      [
        "áº»",
        -9.96581061864352
      ],
      [
        "):",
        -9.965836162308742
      ],
      [
        "ON",
        -9.966415802967015
      ],
      [
        "ĠÄĳáº¿",
        -9.966795034506193
      ],
      [
        "ĠLá»Ļc",
        -9.966892451052814
      ],
      [
        "sta",
        -9.9694149057306
      ],
      [
        "ĠHu",
        -9.96958389742087
      ],
      [
        "ĠTp",
        -9.971650167276282
      ],
      [
        "ĠkÄ©",
        -9.971765975078274
      ],
      [
        "Ġmá»ĵ",
        -9.9727864793454
      ],
      [
        "ĠngÃ£",
        -9.973694417766731
      ],
      [
        "ĠSong",
        -9.97373313144908
      ],
      [
        "ĠDÃ¹ng",
        -9.974180245479698
      ],
      [
        "Ġtrá»ĳng",
        -9.974339423898147
      ],
      [
        "ĠngÆ°",
        -9.975672958382548
      ],
      [
        "55",
        -9.97576127821792
      ],
      [
        "ĠrÅ©",
        -9.976435904541312
      ],
      [
        "ĠlÃ¢m",
        -9.977096218844736
      ],
      [
        "ĠTrÆ°Æ¡ng",
        -9.978312350446886
      ],
      [
        "Ġnháº£y",
        -9.978494962930345
      ],
      [
        "ĠCáº£m",
        -9.978522754945883
      ],
      [
        "Ġháº§m",
        -9.978792968366468
      ],
      [
        "Ã´i",
        -9.978816785405815
      ],
      [
        "ĠCar",
        -9.980809082304736
      ],
      [
        "ĠhÃł",
        -9.98105888399656
      ],
      [
        "ĠCÃ¢y",
        -9.981148782866818
      ],
      [
        "ĠchÄĥn",
        -9.981244223334311
      ],
      [
        "ĠÄĳÃłm",
        -9.981252634991185
      ],
      [
        "ĠYÃªu",
        -9.981566981743203
      ],
      [
        "CÃ¡c",
        -9.984338667687624
      ],
      [
        "ĠLá»ĭch",
        -9.984732016427907
      ],
      [
        ");",
        -9.985132066157426
      ],
      [
        "Ãº",
        -9.986099534646533
      ],
      [
        "ĠSi",
        -9.986991926674564
      ],
      [
        "ĠNhá»Ŀ",
        -9.98798960230029
      ],
      [
        "ĠCÃł",
        -9.98868837341584
      ],
      [
        "ĠngáºŃp",
        -9.98948696825899
      ],
      [
        "ĠNÆ¡i",
        -9.990106285756951
      ],
      [
        "Ã¡t",
        -9.99012980577294
      ],
      [
        "ĠAM",
        -9.990377698269448
      ],
      [
        "Ã¢m",
        -9.990530591660718
      ],
      [
        "ĠDiá»ħn",
        -9.991268436762317
      ],
      [
        "ĠNg",
        -9.991559335651909
      ],
      [
        "ĠcáºŃy",
        -9.992211840117522
      ],
      [
        "HÃł",
        -9.992347417428109
      ],
      [
        "áº§u",
        -9.992624288529443
      ],
      [
        "Ġtháº§u",
        -9.993183551671692
      ],
      [
        "Ġváº¹n",
        -9.99329749156623
      ],
      [
        "ĠLáº¡t",
        -9.993795082765436
      ],
      [
        "ĠCung",
        -9.995221323093167
      ],
      [
        "ĠDung",
        -9.995672765468845
      ],
      [
        "Ġshop",
        -9.99573460567525
      ],
      [
        "ĠtÃºc",
        -9.996119149227162
      ],
      [
        "Ãłn",
        -9.996558366705536
      ],
      [
        "Ġsofa",
        -9.997398884230543
      ],
      [
        "ĠCáºŃp",
        -9.997631493180066
      ],
      [
        "ĠTÄĥng",
        -9.997982949783042
      ],
      [
        "Ġno",
        -9.99829436726652
      ],
      [
        "ĠReal",
        -9.998706791963604
      ],
      [
        "Ġhá»ķ",
        -10.00053638698788
      ],
      [
        "ĠÄĲÄĥng",
        -10.000976612806866
      ],
      [
        "ĠÄĲÃ¡",
        -10.00266973980082
      ],
      [
        "Ġ150",
        -10.0029249690551
      ],
      [
        "ĠÄĲÆ¡n",
        -10.003263211418782
      ],
      [
        "age",
        -10.004156446212171
      ],
      [
        "Ġgá»ĳi",
        -10.005270400330732
      ],
      [
        "ST",
        -10.005298720602823
      ],
      [
        "ĠKh",
        -10.005497901973772
      ],
      [
        "Ġvua",
        -10.005541029386304
      ],
      [
        "q",
        -10.006537782196007
      ],
      [
        "ice",
        -10.00717719820948
      ],
      [
        "Ġdá»«a",
        -10.007258782943907
      ],
      [
        "ĠÄĳáº¯t",
        -10.008015390532064
      ],
      [
        "Ġnhá»ĭp",
        -10.00801867726068
      ],
      [
        "ĠPhÃ¢n",
        -10.00812857499712
      ],
      [
        "GB",
        -10.008602105286808
      ],
      [
        "ĠNgÃ´",
        -10.00863594020434
      ],
      [
        "ĠKá»¹",
        -10.009428938986764
      ],
      [
        "ĠVÃĢ",
        -10.009551514944429
      ],
      [
        "ĠLá»£i",
        -10.01181432588838
      ],
      [
        "Ġbá»Ľt",
        -10.011835566568672
      ],
      [
        "ĠSe",
        -10.012562157644616
      ],
      [
        "Ġngáº¯",
        -10.012647863879511
      ],
      [
        "ĠAr",
        -10.013092391610105
      ],
      [
        "Ġlá»ĵ",
        -10.013363798488603
      ],
      [
        "Ġkhen",
        -10.013635134942636
      ],
      [
        "ĠJa",
        -10.013652054602098
      ],
      [
        "29",
        -10.014100468069786
      ],
      [
        "36",
        -10.014133677067642
      ],
      [
        "Ġlá»ĩch",
        -10.01492645832525
      ],
      [
        "ĠChiá»ģu",
        -10.015360924506297
      ],
      [
        "ĠXuáº¥t",
        -10.016376489357404
      ],
      [
        "anh",
        -10.017276946543692
      ],
      [
        "ĠxÃ¡ch",
        -10.018076685765696
      ],
      [
        "tion",
        -10.018246424030666
      ],
      [
        "ĠngÆ°Æ¡i",
        -10.018338573889904
      ],
      [
        "ĠnÃ©n",
        -10.01837439023266
      ],
      [
        "ĠÆ¯u",
        -10.018765768874085
      ],
      [
        "ĠTráº»",
        -10.018795870078456
      ],
      [
        "ĠHá»Ĺ",
        -10.020002712931614
      ],
      [
        "ron",
        -10.023141733486357
      ],
      [
        "32",
        -10.023265177888597
      ],
      [
        "ĠtÃ¡",
        -10.023937225492332
      ],
      [
        "Ġchuyá»ģn",
        -10.024325591862336
      ],
      [
        "Ġlau",
        -10.025343825683365
      ],
      [
        "ĠtrÃŃch",
        -10.026463008524354
      ],
      [
        "ĠTinh",
        -10.026770921244916
      ],
      [
        "ĠduyÃªn",
        -10.026991580715672
      ],
      [
        "ĠBu",
        -10.02964734950994
      ],
      [
        "ĠTu",
        -10.029755163261036
      ],
      [
        "ĠSao",
        -10.030313383017734
      ],
      [
        "Ġcá»±u",
        -10.030794256290624
      ],
      [
        "ĠXÃ£",
        -10.032358508218902
      ],
      [
        "ĠPhÃŃ",
        -10.03277195355252
      ],
      [
        "90",
        -10.035710054632814
      ],
      [
        "bet",
        -10.037292403545903
      ],
      [
        "ĠhÃłn",
        -10.037439033951893
      ],
      [
        "Ġtráº¡i",
        -10.038577104541604
      ],
      [
        "ĠNe",
        -10.04001440636796
      ],
      [
        "ĠxÆ¡",
        -10.04061626544386
      ],
      [
        "Ġchanh",
        -10.043992173250388
      ],
      [
        ".âĢĿ",
        -10.04444684720768
      ],
      [
        "Ġcáº¯m",
        -10.046711318742997
      ],
      [
        "ĠTriá»ģu",
        -10.046931926759038
      ],
      [
        "ĠÄĳai",
        -10.047046391625502
      ],
      [
        "ĠkhÃ³c",
        -10.047249701001478
      ],
      [
        "ĠdÆ°á»Ŀng",
        -10.04763153479983
      ],
      [
        "Ġbáº¡o",
        -10.047759141181125
      ],
      [
        "68",
        -10.048582211711144
      ],
      [
        "ĠmÃ¡",
        -10.048733220632736
      ],
      [
        "ĠÄĲá»ĵ",
        -10.048735212978771
      ],
      [
        "34",
        -10.049630583787671
      ],
      [
        "ĠDiá»ĩn",
        -10.050276094078733
      ],
      [
        "ĠCam",
        -10.051300386926227
      ],
      [
        "áº¡n",
        -10.0524656171705
      ],
      [
        "Ġchim",
        -10.052799640774168
      ],
      [
        "Ġchá»«ng",
        -10.054687237695012
      ],
      [
        "Ġemail",
        -10.05578710203011
      ],
      [
        "NgÃły",
        -10.05650820949123
      ],
      [
        "ĠMy",
        -10.05752999989715
      ],
      [
        "wa",
        -10.05774512241408
      ],
      [
        "Ġchai",
        -10.05780710086347
      ],
      [
        "ĠthÄĥng",
        -10.057997173896991
      ],
      [
        "Ġmá»Ŀ",
        -10.05861363983188
      ],
      [
        "á»ĳ",
        -10.059469959614422
      ],
      [
        "ĠTháº¯ng",
        -10.060080639940276
      ],
      [
        "Ġxay",
        -10.061537856311592
      ],
      [
        "Ġclip",
        -10.062312545953285
      ],
      [
        "Ġchiáº¿t",
        -10.06395287409811
      ],
      [
        "ĠBÃłn",
        -10.064060123924069
      ],
      [
        "ĠDáº§u",
        -10.06410755504444
      ],
      [
        "ĠÄĲT",
        -10.064527999322296
      ],
      [
        "ĠHiá»ĩu",
        -10.06614526586595
      ],
      [
        "39",
        -10.066938631686332
      ],
      [
        "Ġby",
        -10.067176236986157
      ],
      [
        "Ġchá»ĳt",
        -10.06837390924642
      ],
      [
        "Ġinox",
        -10.068760923491762
      ],
      [
        "ĠdÃ¡m",
        -10.069086526141948
      ],
      [
        "Ġ32",
        -10.069346271776563
      ],
      [
        "ĠSt",
        -10.069356274279462
      ],
      [
        "Ġbo",
        -10.06985086905095
      ],
      [
        "Ġdá»įc",
        -10.070093773374682
      ],
      [
        "ĠSun",
        -10.070160414074396
      ],
      [
        "Ãµ",
        -10.071332876784842
      ],
      [
        "ĠlÃ£m",
        -10.071935869728296
      ],
      [
        "Ġháº±ng",
        -10.072884327903951
      ],
      [
        "TS",
        -10.073424364271231
      ],
      [
        "Ġtha",
        -10.074187734901118
      ],
      [
        "ion",
        -10.074527609298167
      ],
      [
        "ĠdÃ£",
        -10.077268819291946
      ],
      [
        "ĠnÃ¡m",
        -10.080336225896607
      ],
      [
        "ĠTrá»ĭ",
        -10.080403958783153
      ],
      [
        "ĠChung",
        -10.080558325786589
      ],
      [
        "áº¥u",
        -10.08096473731858
      ],
      [
        "ĠLai",
        -10.081115164436072
      ],
      [
        "Ġnáº¿p",
        -10.081733196660911
      ],
      [
        "á»ĳt",
        -10.081789194551105
      ],
      [
        "Ġxáº£",
        -10.082885604817132
      ],
      [
        "ĠRáº¥t",
        -10.083181869796917
      ],
      [
        "ĠKiáº¿n",
        -10.083531984121787
      ],
      [
        "Ġláº·ng",
        -10.084127487265167
      ],
      [
        "TC",
        -10.084952969658076
      ],
      [
        "á»ĳng",
        -10.08531956906642
      ],
      [
        "ĠÄĳá»ĩm",
        -10.085490486060436
      ],
      [
        "QÄĲ",
        -10.086047709046902
      ],
      [
        "Ġthuáº§n",
        -10.088530218096546
      ],
      [
        "Ġinch",
        -10.088812904517042
      ],
      [
        "Ġtrá»Ļm",
        -10.089200451207924
      ],
      [
        "Ġsay",
        -10.090159619318136
      ],
      [
        "Báº¡n",
        -10.0910992777614
      ],
      [
        "ĠGD",
        -10.091241403748455
      ],
      [
        "Ġmá»ĳc",
        -10.091325028242572
      ],
      [
        "ÃĢ",
        -10.091570973131766
      ],
      [
        "ĠBÃ¹",
        -10.091620955994644
      ],
      [
        "Ġson",
        -10.096568030261968
      ],
      [
        "ĠtÃŃm",
        -10.098611333727892
      ],
      [
        "100",
        -10.0986528719656
      ],
      [
        "ĠÄĳiá»ĩp",
        -10.09895170334488
      ],
      [
        "han",
        -10.099147236945871
      ],
      [
        "ĠNhi",
        -10.100260404431346
      ],
      [
        "Ġná»ĵng",
        -10.10046447038623
      ],
      [
        "Ġháº¹p",
        -10.100700510386028
      ],
      [
        "99",
        -10.102777347335683
      ],
      [
        "ĠNghÄ©a",
        -10.10338371896978
      ],
      [
        "Ġ=",
        -10.103465604179272
      ],
      [
        "ĠHáºŃu",
        -10.104622996387564
      ],
      [
        "Ġtháº¡ch",
        -10.105087506678569
      ],
      [
        "31",
        -10.105384343302676
      ],
      [
        "66",
        -10.105448884417733
      ],
      [
        "á»¡",
        -10.10559932160366
      ],
      [
        "fe",
        -10.106299446534146
      ],
      [
        "ĠKo",
        -10.106803527603878
      ],
      [
        "tra",
        -10.10683110925438
      ],
      [
        "ĠcÃºng",
        -10.107325899393036
      ],
      [
        "HO",
        -10.10791603949828
      ],
      [
        "37",
        -10.108353395237652
      ],
      [
        "Ã¡n",
        -10.108411871050173
      ],
      [
        "IN",
        -10.108627015996296
      ],
      [
        "Ġmáº¡n",
        -10.10867445007281
      ],
      [
        "ĠTÃ´",
        -10.109219315602669
      ],
      [
        "ĠHuyá»ĩn",
        -10.111282814105952
      ],
      [
        "ĠSan",
        -10.111297270762025
      ],
      [
        "ĠBao",
        -10.112349708603602
      ],
      [
        "ĠWi",
        -10.112580619580648
      ],
      [
        "Ġbia",
        -10.113671073240656
      ],
      [
        "Theo",
        -10.11488975722705
      ],
      [
        "ĠThá»ĳng",
        -10.115130567757827
      ],
      [
        "ĠgiáºŃt",
        -10.115840107414089
      ],
      [
        "á»Ń",
        -10.117849520012792
      ],
      [
        "Ġrá»¡",
        -10.117947720770765
      ],
      [
        "za",
        -10.120491411850384
      ],
      [
        "Ġmáº§m",
        -10.121015010571163
      ],
      [
        "MA",
        -10.121359227475352
      ],
      [
        "ĠMÃ¬nh",
        -10.12201774831838
      ],
      [
        "ĠKhoáº£n",
        -10.122441933679127
      ],
      [
        "TV",
        -10.122910129962506
      ],
      [
        "áºł",
        -10.124812612699795
      ],
      [
        "â",
        -10.125390306969086
      ],
      [
        "out",
        -10.126498711746889
      ],
      [
        "ĠngÃ³n",
        -10.128191591417265
      ],
      [
        "ee",
        -10.12822527537134
      ],
      [
        "ĠNhÃ¬n",
        -10.128256622159975
      ],
      [
        "Ġbáº¥m",
        -10.12864256050902
      ],
      [
        "kh",
        -10.129712336596487
      ],
      [
        "ĠRu",
        -10.129757646923965
      ],
      [
        "ĠngÃ¢m",
        -10.130742954915837
      ],
      [
        "Ġcua",
        -10.130746359018172
      ],
      [
        "ĠDN",
        -10.131328947756446
      ],
      [
        "ĠTáº£i",
        -10.131725594224491
      ],
      [
        "ĠBiá»ĥn",
        -10.13233773691728
      ],
      [
        "ĠnhÆ°á»£ng",
        -10.132924401316217
      ],
      [
        "Ġtiáº¿c",
        -10.133475925247406
      ],
      [
        "Ã³ng",
        -10.1338267369063
      ],
      [
        "Ġvan",
        -10.134539756612842
      ],
      [
        "Æ°ng",
        -10.134759284979877
      ],
      [
        "ĠViet",
        -10.13544404296717
      ],
      [
        "ĠlÃºa",
        -10.136151262562324
      ],
      [
        "ĠSÆ°",
        -10.138341751084074
      ],
      [
        "Ġis",
        -10.138771667366774
      ],
      [
        "ĠCÆ°á»Ŀng",
        -10.139719931706196
      ],
      [
        "Qu",
        -10.140022004560988
      ],
      [
        "ĠbÃ¹",
        -10.140074237978856
      ],
      [
        "ĠlÃ³t",
        -10.140089275809808
      ],
      [
        "Ã¡ch",
        -10.140199268630951
      ],
      [
        "ĠAir",
        -10.140480209997577
      ],
      [
        "ĠÃģo",
        -10.140786462059298
      ],
      [
        "ex",
        -10.142592947220807
      ],
      [
        "tic",
        -10.142720007318186
      ],
      [
        "ers",
        -10.14301205488283
      ],
      [
        "ĠPhÆ°á»Ŀng",
        -10.14301693293537
      ],
      [
        "Ġviá»ħn",
        -10.144141955674316
      ],
      [
        "Ġxi",
        -10.144540354979023
      ],
      [
        "Ġ2011",
        -10.145235681232135
      ],
      [
        "44",
        -10.146035271484788
      ],
      [
        "ĠÄĲá»«ng",
        -10.14816321455409
      ],
      [
        "CN",
        -10.148273892560573
      ],
      [
        "48",
        -10.148445142620664
      ],
      [
        "Ġbáº¯c",
        -10.148649797317962
      ],
      [
        "Ãºt",
        -10.14902130322728
      ],
      [
        "Ġtáº§n",
        -10.149283698465132
      ],
      [
        "ĠPi",
        -10.14947372796367
      ],
      [
        "ĠtrÆ°a",
        -10.150858214094272
      ],
      [
        "ment",
        -10.150965588234603
      ],
      [
        "Ġsmartphone",
        -10.151195169376429
      ],
      [
        "KhÃ´ng",
        -10.152336955031942
      ],
      [
        "Ġmen",
        -10.15243760349028
      ],
      [
        "Ph",
        -10.152966270986658
      ],
      [
        "á»ĥ",
        -10.154679576567403
      ],
      [
        "lan",
        -10.154800616190476
      ],
      [
        "zi",
        -10.155046752131788
      ],
      [
        "Ġká»ĩ",
        -10.15515372924574
      ],
      [
        "Ġquáº¡t",
        -10.155942082566874
      ],
      [
        "Ġlong",
        -10.156621593134195
      ],
      [
        "ĠthÃ¡nh",
        -10.156981489943837
      ],
      [
        "Ġtriá»ĩ",
        -10.157321537025648
      ],
      [
        "Ġ36",
        -10.15826209886933
      ],
      [
        "Ġmassage",
        -10.159261263441689
      ],
      [
        "ĠBá»ĵ",
        -10.159388860735747
      ],
      [
        "ĠtÃºy",
        -10.16040854669482
      ],
      [
        "NN",
        -10.161174930724403
      ],
      [
        "Ġxá»ķ",
        -10.161243131261385
      ],
      [
        "?âĢĿ",
        -10.16130843388659
      ],
      [
        "ĠBáº£ng",
        -10.161614459151515
      ],
      [
        "Ġbáº¯p",
        -10.162091544673476
      ],
      [
        "Ġoxy",
        -10.162982032087386
      ],
      [
        "CÃ´ng",
        -10.162990388641058
      ],
      [
        "á»«",
        -10.163313754886891
      ],
      [
        "ear",
        -10.163886461598048
      ],
      [
        "khÃ´ng",
        -10.164731133870584
      ],
      [
        "ĠlÅ©",
        -10.165519019051018
      ],
      [
        "ĠvÃµ",
        -10.165714031644043
      ],
      [
        "ĠTÃ²a",
        -10.165861959497173
      ],
      [
        "Ġrung",
        -10.166034100060209
      ],
      [
        "áº¢",
        -10.16623561683882
      ],
      [
        "Ġxáº¿",
        -10.166980101931792
      ],
      [
        "á»©",
        -10.167504286291788
      ],
      [
        "ĠChÆ°",
        -10.16907267931104
      ],
      [
        "ĠLao",
        -10.169344578650906
      ],
      [
        "ĠÄĳáº¯c",
        -10.169904588646332
      ],
      [
        "Má»Ļt",
        -10.169989499779035
      ],
      [
        "âĢ¦.",
        -10.17070647152287
      ],
      [
        "ĠÄĲáº¡o",
        -10.17083263600856
      ],
      [
        "ĠÄĲÃ´",
        -10.172884085069583
      ],
      [
        "Ġheo",
        -10.172916209034153
      ],
      [
        "https",
        -10.174125288571602
      ],
      [
        "OS",
        -10.17509497588257
      ],
      [
        "ĠGu",
        -10.175258350905676
      ],
      [
        "Ġngáº¡c",
        -10.176224430942112
      ],
      [
        "ĠLÃło",
        -10.17635619689775
      ],
      [
        "ĠÄĤn",
        -10.176641822169708
      ],
      [
        "CÃ³",
        -10.1767167611473
      ],
      [
        "fa",
        -10.176947365535668
      ],
      [
        "Ġcáº¥t",
        -10.17711171582579
      ],
      [
        "á»ģ",
        -10.177842415549804
      ],
      [
        "Ġ2010",
        -10.177935719425422
      ],
      [
        "ĠÂ·",
        -10.178832297418031
      ],
      [
        "Ã©t",
        -10.179285302664944
      ],
      [
        "ĠMu",
        -10.179766301878892
      ],
      [
        "Ġlink",
        -10.180355475349712
      ],
      [
        "ĠCuá»ĳi",
        -10.18172601033474
      ],
      [
        "ĠniÃª",
        -10.18184469411975
      ],
      [
        "ĠlÃ¡t",
        -10.182440566102224
      ],
      [
        "Å©",
        -10.182469978553865
      ],
      [
        "Ġlá»ıng",
        -10.183058375345103
      ],
      [
        "Ġkháº©n",
        -10.18426532905339
      ],
      [
        "Ġtia",
        -10.185148431032546
      ],
      [
        "ĠthÃ´",
        -10.185376297270434
      ],
      [
        "áº¡t",
        -10.18559332247778
      ],
      [
        "áº£i",
        -10.18608503119084
      ],
      [
        "ĠÃĶ",
        -10.18641007942573
      ],
      [
        "RE",
        -10.188076639890504
      ],
      [
        "ĠmÃ²n",
        -10.188142620004871
      ],
      [
        "Ġthá»£",
        -10.188220278676535
      ],
      [
        "á»§",
        -10.191038114580396
      ],
      [
        "ĠHáº¡nh",
        -10.191120391770673
      ],
      [
        "ĠHay",
        -10.191218784671712
      ],
      [
        "Ġnho",
        -10.1921690324943
      ],
      [
        "Ġbá»ĵn",
        -10.19239939972314
      ],
      [
        "ĠvuÃ´ng",
        -10.192957012835697
      ],
      [
        "ĠTe",
        -10.19316711885237
      ],
      [
        "áº¯p",
        -10.193187333578734
      ],
      [
        "ĠÄĲáº·t",
        -10.194769849812994
      ],
      [
        "ND",
        -10.19477060048683
      ],
      [
        "ĠVI",
        -10.19485789964483
      ],
      [
        "CB",
        -10.195354520222445
      ],
      [
        "Ġkhoe",
        -10.19554582383484
      ],
      [
        "our",
        -10.19650439268344
      ],
      [
        "ĠTrÃŃ",
        -10.196688722370991
      ],
      [
        "ĠbÃºt",
        -10.197478119416571
      ],
      [
        "ĠchÃ¡n",
        -10.197601370444543
      ],
      [
        "ĠtrÆ°á»£t",
        -10.198277142447497
      ],
      [
        "ĠTriá»ĩu",
        -10.198414396608596
      ],
      [
        "ĠtrÃ¡ng",
        -10.199147744221566
      ],
      [
        "and",
        -10.199254005286384
      ],
      [
        "Ġsim",
        -10.199547257056032
      ],
      [
        "áº¹",
        -10.19970533021232
      ],
      [
        "Ġnáº¯p",
        -10.20091263679657
      ],
      [
        "Ġsen",
        -10.20148787396133
      ],
      [
        "ĠPC",
        -10.201579032258628
      ],
      [
        "ĠTháºŃt",
        -10.20167890316121
      ],
      [
        "ĠtuÃ¢n",
        -10.2021644956021
      ],
      [
        "49",
        -10.202979429534704
      ],
      [
        "tor",
        -10.203433891917276
      ],
      [
        "AR",
        -10.204618696525216
      ],
      [
        "ven",
        -10.20489815226878
      ],
      [
        "ĠNgÃłi",
        -10.205392396475618
      ],
      [
        "ua",
        -10.205475056914764
      ],
      [
        "á»Ĺ",
        -10.205934676925349
      ],
      [
        "Ġ55",
        -10.206375334900372
      ],
      [
        "ger",
        -10.206511644325913
      ],
      [
        "ill",
        -10.20712180146402
      ],
      [
        "ster",
        -10.207518551873305
      ],
      [
        "áº§m",
        -10.207813792385814
      ],
      [
        "ĠThá»į",
        -10.2079030011534
      ],
      [
        "Ġdá»įa",
        -10.208026163519175
      ],
      [
        "Ġhoáº£ng",
        -10.208026390527582
      ],
      [
        "áº¥y",
        -10.208657864271853
      ],
      [
        "ĠÄĳÃºc",
        -10.208710430521238
      ],
      [
        "Ġcá»¥m",
        -10.209120736267288
      ],
      [
        "ĠThuá»ĳc",
        -10.2092765801206
      ],
      [
        "á»Ŀ",
        -10.210230921068831
      ],
      [
        "Ġá»¨n",
        -10.210408161483407
      ],
      [
        "AS",
        -10.210421489136571
      ],
      [
        "cÃ³",
        -10.211490077106903
      ],
      [
        "ĠsÃ³t",
        -10.21264446653466
      ],
      [
        "ĠLá»Ŀi",
        -10.213224130237728
      ],
      [
        "ber",
        -10.213475469527342
      ],
      [
        "áº¿p",
        -10.213876849041132
      ],
      [
        "ĠvÆ°Æ¡ng",
        -10.214017898191434
      ],
      [
        "Ġna",
        -10.214861394899945
      ],
      [
        "NÄĲ",
        -10.215429747092031
      ],
      [
        "ĠtrÃ´i",
        -10.215763380325985
      ],
      [
        "ER",
        -10.215798903749835
      ],
      [
        "Ġkhoan",
        -10.216024658211884
      ],
      [
        "Ãło",
        -10.2162989465371
      ],
      [
        "46",
        -10.216306956887555
      ],
      [
        "ĠFa",
        -10.216323509505555
      ],
      [
        "ĠFi",
        -10.217551513003288
      ],
      [
        "ĠThÃªm",
        -10.218650993076311
      ],
      [
        "Ġ>>",
        -10.22051629125816
      ],
      [
        "ĠMalaysia",
        -10.2223044098361
      ],
      [
        "Ġmáº¡o",
        -10.223335192871897
      ],
      [
        "ĠchiÃªn",
        -10.22339708589828
      ],
      [
        "ĠchÄĥng",
        -10.223545785316134
      ],
      [
        "Ġtá»įa",
        -10.225305102329768
      ],
      [
        "ĠCu",
        -10.226969426133127
      ],
      [
        "ĠVÃłng",
        -10.22735574104756
      ],
      [
        "Náº¿u",
        -10.227438460025914
      ],
      [
        "ĠnÃ¢u",
        -10.22767975522243
      ],
      [
        "ĠDÆ°á»£c",
        -10.228676737146197
      ],
      [
        "TÃ¹y",
        -10.230082031282086
      ],
      [
        "ĠCanada",
        -10.230245424705776
      ],
      [
        "ĠmÃ¨o",
        -10.230281204906428
      ],
      [
        "wi",
        -10.230443025795536
      ],
      [
        "Ġmini",
        -10.230793953182973
      ],
      [
        "ĠsÃ¡u",
        -10.231878971880851
      ],
      [
        "ĠmÃ³ng",
        -10.23196313022843
      ],
      [
        "Ġxáº¡",
        -10.232737641243594
      ],
      [
        "Ġphu",
        -10.233341379947614
      ],
      [
        "ĠTV",
        -10.233556857580025
      ],
      [
        "ĠGiÃºp",
        -10.234056623273007
      ],
      [
        "ĠTÄ©nh",
        -10.23474345357711
      ],
      [
        "ĠHuyá»ģn",
        -10.235185985060896
      ],
      [
        "Ġnháº¡t",
        -10.235325274893937
      ],
      [
        "ĠLÆ°á»£",
        -10.236511053958868
      ],
      [
        "ĠKÃŃnh",
        -10.23684364507838
      ],
      [
        "Ġcafe",
        -10.23712427888798
      ],
      [
        "ĠmÆ°u",
        -10.23729723059242
      ],
      [
        "Ġrá»±c",
        -10.238017517862762
      ],
      [
        "Ġkhe",
        -10.23818832161005
      ],
      [
        "ChÃºng",
        -10.238501668051972
      ],
      [
        "ĠCháº¿",
        -10.238869947105574
      ],
      [
        "tri",
        -10.239538479187456
      ],
      [
        "Ġlang",
        -10.23977325889897
      ],
      [
        "2011",
        -10.2399251637451
      ],
      [
        "ĠCÃ¡t",
        -10.240080222567546
      ],
      [
        "ft",
        -10.240345491019262
      ],
      [
        "54",
        -10.24106389777238
      ],
      [
        "all",
        -10.24186087018492
      ],
      [
        "Ġkhuyáº¿t",
        -10.242279624989145
      ],
      [
        "ĠCP",
        -10.242343762405907
      ],
      [
        "ĠxÃ¡",
        -10.242399971373498
      ],
      [
        "ĠcháºŃu",
        -10.243310746386918
      ],
      [
        "ĠÃ±",
        -10.24343272980666
      ],
      [
        "Ġnhá»ĭ",
        -10.243506431868653
      ],
      [
        "Ġlu",
        -10.245223135520636
      ],
      [
        "Ġchá»ĳi",
        -10.24528489251825
      ],
      [
        "ĠvÃ¡n",
        -10.24730253224468
      ],
      [
        "ĠkhÃ¡t",
        -10.24783871085031
      ],
      [
        "á»ĵ",
        -10.249025290035291
      ],
      [
        "ĠChÃºc",
        -10.249642977864694
      ],
      [
        "ĠÄĳá»Ĺ",
        -10.249779474390785
      ],
      [
        "ĠChá»©ng",
        -10.250223840850786
      ],
      [
        "ĠbÃ¹ng",
        -10.251403695433964
      ],
      [
        "Ġngá»įn",
        -10.251491186119493
      ],
      [
        "Ġsá»¥",
        -10.251603398903605
      ],
      [
        "ĠChiáº¿c",
        -10.25165063377401
      ],
      [
        "ĠmÃ¢y",
        -10.252745659113575
      ],
      [
        "ĠShop",
        -10.253414435190424
      ],
      [
        "ĠTÃ´n",
        -10.253642343276011
      ],
      [
        "43",
        -10.254363736248791
      ],
      [
        "ive",
        -10.254636214832589
      ],
      [
        "ĠSiÃªu",
        -10.254964142537244
      ],
      [
        "Ġinternet",
        -10.255072325853885
      ],
      [
        "Ġcá»ĳc",
        -10.255892909824787
      ],
      [
        "[",
        -10.256245068986068
      ],
      [
        "Æ°á»Ŀng",
        -10.256810396257286
      ],
      [
        "du",
        -10.257153710394055
      ],
      [
        "ieu",
        -10.257396452296138
      ],
      [
        "ĠdÄ©",
        -10.257610487069632
      ],
      [
        "tal",
        -10.258370969230027
      ],
      [
        "ĠphÆ¡",
        -10.25849749631853
      ],
      [
        "Ã½",
        -10.25961374344689
      ],
      [
        "ĠChelsea",
        -10.259913382879706
      ],
      [
        "ĠTáº¡o",
        -10.25995496300681
      ],
      [
        "ĠÄĲá»Ĺ",
        -10.260934490269989
      ],
      [
        "Ġhiáº¿n",
        -10.261165395453808
      ],
      [
        "ino",
        -10.2612962490755
      ],
      [
        "ĠMÃ¹a",
        -10.261455093629202
      ],
      [
        "Ġliá»ģu",
        -10.261688100799862
      ],
      [
        "CT",
        -10.262129976852504
      ],
      [
        "ĠBáº¿n",
        -10.262377804346071
      ],
      [
        "day",
        -10.262545073698984
      ],
      [
        "ĠbáºŃn",
        -10.26303806482048
      ],
      [
        "Ġ38",
        -10.263229611182751
      ],
      [
        "Ġhttp",
        -10.264522159382302
      ],
      [
        "ian",
        -10.264612561941847
      ],
      [
        "Ãĵ",
        -10.264901047061558
      ],
      [
        "cho",
        -10.265094229107005
      ],
      [
        "fo",
        -10.26526454091058
      ],
      [
        "play",
        -10.265698899783152
      ],
      [
        "ĠgiáºŃn",
        -10.26645721319846
      ],
      [
        "ji",
        -10.268120774981249
      ],
      [
        "ĠThá»¥y",
        -10.268266022372488
      ],
      [
        "ĠcÆ°á»Ľc",
        -10.268452139007886
      ],
      [
        "ent",
        -10.26878704761504
      ],
      [
        "Ġngá»įc",
        -10.268982259451786
      ],
      [
        "ĠtrÆ¡n",
        -10.270160607993844
      ],
      [
        "ĠMay",
        -10.270511234460358
      ],
      [
        "Ġmá»Ļng",
        -10.27114069039813
      ],
      [
        "win",
        -10.271414937543993
      ],
      [
        "ĠLáº¡c",
        -10.273436438076686
      ],
      [
        "Ġcáº£ng",
        -10.273647202743458
      ],
      [
        "Ãļ",
        -10.274017844225677
      ],
      [
        "ĠChia",
        -10.274199461731332
      ],
      [
        "ff",
        -10.275173788694795
      ],
      [
        "Ġtuá»ĩ",
        -10.275451880630916
      ],
      [
        "89",
        -10.277650424565088
      ],
      [
        "47",
        -10.278274922439314
      ],
      [
        "ĠÄĳá»ģn",
        -10.279743545504711
      ],
      [
        "ĠbÃº",
        -10.280468511598562
      ],
      [
        "Ã¸",
        -10.28119138332086
      ],
      [
        "ĠVin",
        -10.281248166181424
      ],
      [
        "ĠlÃµi",
        -10.281929681518951
      ],
      [
        "Ġleo",
        -10.28436413991532
      ],
      [
        "ĠÄĳe",
        -10.2846006654527
      ],
      [
        "ĠcÆ°á»Ľp",
        -10.284732851727073
      ],
      [
        "ĠbÃ³n",
        -10.2849214330397
      ],
      [
        "MT",
        -10.286008245503869
      ],
      [
        "ĠvÃ¡c",
        -10.286024348899588
      ],
      [
        "port",
        -10.286217460830844
      ],
      [
        "Xem",
        -10.286972294091845
      ],
      [
        "Ġaxit",
        -10.287559959859223
      ],
      [
        "ĠngoÃ¡i",
        -10.288216062428637
      ],
      [
        "SN",
        -10.288635895510728
      ],
      [
        "ĠTá»·",
        -10.290101084779398
      ],
      [
        "ĠchÃ¢m",
        -10.290761590967112
      ],
      [
        "ĠAd",
        -10.29150480679028
      ],
      [
        "ĠxÃ³m",
        -10.293443923582368
      ],
      [
        "Ġhuyá»ģn",
        -10.29353116994046
      ],
      [
        "ĠVÅ©ng",
        -10.293871181105132
      ],
      [
        "ĠMÃ´i",
        -10.29542311173442
      ],
      [
        "Ġtrá»į",
        -10.296694165611717
      ],
      [
        "ĠMÃ´",
        -10.296777637829392
      ],
      [
        "ĠChÃ¡nh",
        -10.297811223810202
      ],
      [
        "ĠÄĳá»ĵn",
        -10.298124286268616
      ],
      [
        "Ġphá»ķi",
        -10.299103221140651
      ],
      [
        "LA",
        -10.299794876132273
      ],
      [
        "Ġlá»Ļc",
        -10.300021726808929
      ],
      [
        "ĠTáº¡",
        -10.30012607644911
      ],
      [
        "ĠLED",
        -10.30041066911744
      ],
      [
        "ĠThÃ¢n",
        -10.301395447298011
      ],
      [
        "ble",
        -10.301485643861504
      ],
      [
        "Ġmáº£ng",
        -10.30167372637185
      ],
      [
        "59",
        -10.302208749400148
      ],
      [
        "á»ĭch",
        -10.302384071158045
      ],
      [
        "Ġ400",
        -10.3032852834698
      ],
      [
        "ĠÃªm",
        -10.303364671834132
      ],
      [
        "ĠÄĲinh",
        -10.303459946539476
      ],
      [
        "sÃºt",
        -10.303772604887714
      ],
      [
        "Ġki",
        -10.30444174267974
      ],
      [
        "ĠTS",
        -10.304786300439597
      ],
      [
        "Ġpháº¿",
        -10.30766917610046
      ],
      [
        "Ã´n",
        -10.30849968078265
      ],
      [
        "ler",
        -10.309089605328133
      ],
      [
        "ĠchiÃªu",
        -10.31002221771512
      ],
      [
        "lic",
        -10.31094440231278
      ],
      [
        "ĠkhÃ©o",
        -10.312277789021246
      ],
      [
        "act",
        -10.312409432115548
      ],
      [
        "Ġ65",
        -10.312658801242565
      ],
      [
        "Ġyou",
        -10.312756255369353
      ],
      [
        "Ġle",
        -10.31315907131365
      ],
      [
        "Ġsáº¹o",
        -10.313472642491414
      ],
      [
        "ÃĬ",
        -10.313561670707658
      ],
      [
        "Ġcháº½",
        -10.313843077640165
      ],
      [
        "Ġbáº¿n",
        -10.314687116941151
      ],
      [
        "56",
        -10.314963847885563
      ],
      [
        "ĠLá»ĩ",
        -10.315598403998198
      ],
      [
        "41",
        -10.316229264201793
      ],
      [
        "ĠEl",
        -10.316334891431566
      ],
      [
        "Ġtráº¡m",
        -10.316747597735912
      ],
      [
        "ist",
        -10.316926572049056
      ],
      [
        "Ã¢",
        -10.317116009006092
      ],
      [
        "75",
        -10.31726882521339
      ],
      [
        "GMT",
        -10.318230043892587
      ],
      [
        "ĠMáº¡nh",
        -10.318461747585411
      ],
      [
        "ĠWa",
        -10.318480520279318
      ],
      [
        "ĠVideo",
        -10.319819798773468
      ],
      [
        "Ġsoáº¡n",
        -10.32033811680117
      ],
      [
        "ĠkhoÃ¡c",
        -10.320347140616487
      ],
      [
        "Ġgo",
        -10.320635160965407
      ],
      [
        "Ġmo",
        -10.321345068891718
      ],
      [
        "ĠtÃłng",
        -10.321808667853338
      ],
      [
        "Ġváº·t",
        -10.322839376311553
      ],
      [
        "ĠNAM",
        -10.322915738558354
      ],
      [
        "by",
        -10.32466226386229
      ],
      [
        "ĠÃĤm",
        -10.324697023760276
      ],
      [
        "ĠGiá»Ŀ",
        -10.32507963974635
      ],
      [
        "CK",
        -10.326568933301804
      ],
      [
        "ĠghÃ©",
        -10.3267600102211
      ],
      [
        "Ġnhan",
        -10.32688324748769
      ],
      [
        "Ġtá»ıi",
        -10.327350582568624
      ],
      [
        "ĠSEO",
        -10.3273643661852
      ],
      [
        "ĠTuá»ķi",
        -10.327682639382116
      ],
      [
        "Ġkhoáº»",
        -10.327886984782657
      ],
      [
        "NgÆ°á»Ŀi",
        -10.328154951156636
      ],
      [
        "ĠJe",
        -10.328238510640004
      ],
      [
        "nÄĥm",
        -10.32853111170624
      ],
      [
        "ide",
        -10.328738063034406
      ],
      [
        "ĠQuá»³nh",
        -10.329095950772238
      ],
      [
        "HA",
        -10.330503452658505
      ],
      [
        "ĠvÄ©",
        -10.330839972935168
      ],
      [
        "ĠlÃŃt",
        -10.331114810899033
      ],
      [
        "Ã³c",
        -10.331614959981318
      ],
      [
        "ĠTai",
        -10.332409476166584
      ],
      [
        "ste",
        -10.332810801443182
      ],
      [
        "Ä©",
        -10.333088319155635
      ],
      [
        "Ġnháº«n",
        -10.333417213474236
      ],
      [
        "Ġhá»ıa",
        -10.333882675567883
      ],
      [
        "ĠcÃ£i",
        -10.334575542227366
      ],
      [
        "áºŃt",
        -10.335170447904986
      ],
      [
        "men",
        -10.33585533449564
      ],
      [
        "ning",
        -10.335937923682758
      ],
      [
        "ĠHotline",
        -10.336455563006083
      ],
      [
        "Ã³i",
        -10.33699522182845
      ],
      [
        "Ġbu",
        -10.337283414306794
      ],
      [
        "86",
        -10.337640761208592
      ],
      [
        "42",
        -10.33799614080596
      ],
      [
        "ĠHoáº·c",
        -10.33944590313804
      ],
      [
        "Ġthiá»ĩp",
        -10.339716265502496
      ],
      [
        "Ġlá»£n",
        -10.340509404591906
      ],
      [
        "ĠÄĳoáº¡",
        -10.341193695727062
      ],
      [
        "Ġkhá»Ń",
        -10.341774388615622
      ],
      [
        "Ġráº¯n",
        -10.343104513771602
      ],
      [
        "ÃĶ",
        -10.343487321819394
      ],
      [
        "van",
        -10.344165599652753
      ],
      [
        "ren",
        -10.3442516492692
      ],
      [
        "58",
        -10.34433014394876
      ],
      [
        "IC",
        -10.344467354110884
      ],
      [
        "Ġvá»Ļi",
        -10.344670934243148
      ],
      [
        "ser",
        -10.344807588586573
      ],
      [
        "ĠQuÃ¡",
        -10.345027434494392
      ],
      [
        "Ġthoa",
        -10.34512811719865
      ],
      [
        "Ġmm",
        -10.345241735117217
      ],
      [
        "áº¢nh",
        -10.345250482137097
      ],
      [
        "ĠvÃº",
        -10.345488259191102
      ],
      [
        "ĠVNÄĲ",
        -10.34641867489129
      ],
      [
        "Ġkhá»©",
        -10.34653562151765
      ],
      [
        "Ġsan",
        -10.346554383091194
      ],
      [
        "79",
        -10.346946047359156
      ],
      [
        "ĠWe",
        -10.34721017181628
      ],
      [
        "ĠkhÃ´n",
        -10.348683005891456
      ],
      [
        "ĠTri",
        -10.349193645245004
      ],
      [
        "Ġpro",
        -10.349491218254716
      ],
      [
        "lle",
        -10.349837635385844
      ],
      [
        "ĠkhÃ³i",
        -10.349840916508365
      ],
      [
        "Ġdá»įn",
        -10.350227848165536
      ],
      [
        "lin",
        -10.350906545617512
      ],
      [
        "Ġá»Ľt",
        -10.350930796428315
      ],
      [
        "Ġtá»©",
        -10.351838009700009
      ],
      [
        "Ġtrá»ĳn",
        -10.352405521082687
      ],
      [
        "ĠMÃł",
        -10.352706375392176
      ],
      [
        "ĠHá»ĵi",
        -10.35299491106136
      ],
      [
        "ĠMadrid",
        -10.354321835655336
      ],
      [
        "AM",
        -10.354537605681555
      ],
      [
        "ĠÆ¡i",
        -10.354868986819314
      ],
      [
        "ĠLÃ¡",
        -10.355298895275716
      ],
      [
        "á»ī",
        -10.355314445632112
      ],
      [
        "gia",
        -10.355683683359146
      ],
      [
        "ĠchÃ¨",
        -10.355880376630276
      ],
      [
        "Ġlá»¡",
        -10.35721909016633
      ],
      [
        "Ġcá»ĳng",
        -10.35729354870374
      ],
      [
        "Æ°á»Ľc",
        -10.35748914685681
      ],
      [
        "las",
        -10.357741619313863
      ],
      [
        "qu",
        -10.357750588408775
      ],
      [
        "ĠTrÃ¡i",
        -10.36004342572402
      ],
      [
        "Ġná»¥",
        -10.360887413537876
      ],
      [
        "ĠkhÃ¢u",
        -10.361009239468745
      ],
      [
        "Ġmu",
        -10.361055785723442
      ],
      [
        "Ġsáº¥y",
        -10.361359213886114
      ],
      [
        "ric",
        -10.3616123200109
      ],
      [
        "Ġmáº¡",
        -10.361696528098168
      ],
      [
        "ture",
        -10.36218579465856
      ],
      [
        "ĠÄĳuÃ´i",
        -10.362451534337124
      ],
      [
        "ĠHuá»³nh",
        -10.363350794734846
      ],
      [
        "ĠHonda",
        -10.36394193273494
      ],
      [
        "Ġbá»ķng",
        -10.364427325935743
      ],
      [
        "ĠMÃłn",
        -10.364463746601896
      ],
      [
        "Äĥm",
        -10.36451799811111
      ],
      [
        "Ã²ng",
        -10.364532856655629
      ],
      [
        "Ġmuá»Ļn",
        -10.365323494477416
      ],
      [
        "áº·t",
        -10.365382855881135
      ],
      [
        "Ġtháº¥u",
        -10.36549073892129
      ],
      [
        "iz",
        -10.365576824570086
      ],
      [
        "ĠnhÄĥn",
        -10.365681382928509
      ],
      [
        "ris",
        -10.367003360599243
      ],
      [
        "che",
        -10.3674412578295
      ],
      [
        "ĠGroup",
        -10.36753706789837
      ],
      [
        "Ġ33",
        -10.367805083668948
      ],
      [
        "ten",
        -10.368205208128751
      ],
      [
        "ĠHáº§u",
        -10.369125420288809
      ],
      [
        "den",
        -10.369392261566226
      ],
      [
        "áº¥m",
        -10.370610378868118
      ],
      [
        "Ġchinh",
        -10.370683621164284
      ],
      [
        "Ġcay",
        -10.370733947990498
      ],
      [
        "ĠChÃ¢n",
        -10.370748632752932
      ],
      [
        "ĠxÄĥm",
        -10.370880668196287
      ],
      [
        "ĠLy",
        -10.371376713615692
      ],
      [
        "ther",
        -10.37152397111966
      ],
      [
        "PS",
        -10.371610695587442
      ],
      [
        "ting",
        -10.371889370362462
      ],
      [
        "Ġmáº¿n",
        -10.37239005029882
      ],
      [
        "ĠPhá»ĳ",
        -10.372899902008935
      ],
      [
        "ĠTÃ¹ng",
        -10.37443245825585
      ],
      [
        "ĠWebsite",
        -10.375274795880172
      ],
      [
        "ĠSp",
        -10.375449650594772
      ],
      [
        "ĠkÃŃ",
        -10.375917883788626
      ],
      [
        "mer",
        -10.37669149636417
      ],
      [
        "áº¥n",
        -10.377143284056036
      ],
      [
        "ĠchÃºa",
        -10.377316145109075
      ],
      [
        "ĠkhÃ¡i",
        -10.37741651234992
      ],
      [
        "á»ķi",
        -10.37786342940157
      ],
      [
        "ĠThá»ķ",
        -10.378249772237732
      ],
      [
        "ĠTháº§y",
        -10.37850156335148
      ],
      [
        "Ġven",
        -10.378714423143904
      ],
      [
        "ĠÄĲáº·ng",
        -10.378999610202946
      ],
      [
        "Ġbáº£y",
        -10.37901182546875
      ],
      [
        "ĠNghiÃªn",
        -10.379062810278375
      ],
      [
        "áº©n",
        -10.379226619877128
      ],
      [
        "ĠbÃ´i",
        -10.379564126348786
      ],
      [
        "TH",
        -10.37992893979244
      ],
      [
        "Ġká»ģ",
        -10.380017707572314
      ],
      [
        "EN",
        -10.380606620744915
      ],
      [
        "ĠThá»ĭnh",
        -10.380624519749178
      ],
      [
        "ĠVIá»ĨT",
        -10.38186449072845
      ],
      [
        "Ġá»ĳp",
        -10.382093585807947
      ],
      [
        "=",
        -10.383314689871623
      ],
      [
        "ĠMá»Ļc",
        -10.383699232754871
      ],
      [
        "ĠtrÃłng",
        -10.386001374102246
      ],
      [
        "Ġgam",
        -10.38609747834206
      ],
      [
        "thÃ¡ng",
        -10.38792599303146
      ],
      [
        "ĠDownload",
        -10.388648762849584
      ],
      [
        "Ġhá»įng",
        -10.389146251069995
      ],
      [
        "ĠBá»ĭ",
        -10.389580656928276
      ],
      [
        "ĠVáºŃn",
        -10.389844062224766
      ],
      [
        "Ġngáº§m",
        -10.389921211031428
      ],
      [
        "Ġbá»ıng",
        -10.390026405953424
      ],
      [
        "Ġbá»ī",
        -10.3906809409077
      ],
      [
        "84",
        -10.390901806506616
      ],
      [
        "ja",
        -10.390939548586896
      ],
      [
        "ĠKe",
        -10.391103941959608
      ],
      [
        "ĠquÃ©t",
        -10.39115520331316
      ],
      [
        "ĠAs",
        -10.392732093589872
      ],
      [
        "ĠmÄĥng",
        -10.393478126187562
      ],
      [
        "ĠTáº¥n",
        -10.393788512299164
      ],
      [
        "Ġhá»ĳi",
        -10.394546129335076
[...]
